#ifndef MNIST_MODEL_H
#define MNIST_MODEL_H


unsigned int mnist_model_len = 8160;
unsigned char digits_model[] = {
 0x1c, 0x00, 0x00, 0x00, 0x54, 0x46, 0x4c, 0x33, 0x14, 0x00, 0x20, 0x00,
  0x04, 0x00, 0x08, 0x00, 0x0c, 0x00, 0x10, 0x00, 0x14, 0x00, 0x00, 0x00,
  0x18, 0x00, 0x1c, 0x00, 0x14, 0x00, 0x00, 0x00, 0x03, 0x00, 0x00, 0x00,
  0x18, 0x00, 0x00, 0x00, 0x2c, 0x00, 0x00, 0x00, 0xc8, 0x00, 0x00, 0x00,
  0x2c, 0x00, 0x00, 0x00, 0x70, 0x00, 0x00, 0x00, 0x68, 0x00, 0x00, 0x00,
  0x05, 0x00, 0x00, 0x00, 0x5c, 0x05, 0x00, 0x00, 0x74, 0x04, 0x00, 0x00,
  0xa8, 0x03, 0x00, 0x00, 0xd4, 0x02, 0x00, 0x00, 0x84, 0x01, 0x00, 0x00,
  0x01, 0x00, 0x00, 0x00, 0xc0, 0x00, 0x00, 0x00, 0x10, 0x00, 0x00, 0x00,
  0x7c, 0x1f, 0x00, 0x00, 0x78, 0x1f, 0x00, 0x00, 0x6c, 0x1e, 0x00, 0x00,
  0xb4, 0x1d, 0x00, 0x00, 0x20, 0x1d, 0x00, 0x00, 0xb0, 0x1c, 0x00, 0x00,
  0x58, 0x0a, 0x00, 0x00, 0x80, 0x07, 0x00, 0x00, 0x00, 0x06, 0x00, 0x00,
  0x58, 0x1f, 0x00, 0x00, 0x54, 0x1f, 0x00, 0x00, 0x50, 0x1f, 0x00, 0x00,
  0x4c, 0x1f, 0x00, 0x00, 0x48, 0x1f, 0x00, 0x00, 0x44, 0x1f, 0x00, 0x00,
  0x3c, 0x00, 0x00, 0x00, 0x00, 0x00, 0x00, 0x00, 0x01, 0x00, 0x00, 0x00,
  0x0c, 0x00, 0x00, 0x00, 0x08, 0x00, 0x0c, 0x00, 0x04, 0x00, 0x08, 0x00,
  0x08, 0x00, 0x00, 0x00, 0x08, 0x00, 0x00, 0x00, 0x0f, 0x00, 0x00, 0x00,
  0x13, 0x00, 0x00, 0x00, 0x6d, 0x69, 0x6e, 0x5f, 0x72, 0x75, 0x6e, 0x74,
  0x69, 0x6d, 0x65, 0x5f, 0x76, 0x65, 0x72, 0x73, 0x69, 0x6f, 0x6e, 0x00,
  0x0a, 0xe2, 0xff, 0xff, 0x04, 0x00, 0x00, 0x00, 0x10, 0x00, 0x00, 0x00,
  0x31, 0x2e, 0x35, 0x2e, 0x30, 0x00, 0x00, 0x00, 0x00, 0x00, 0x00, 0x00,
  0x00, 0x00, 0x00, 0x00, 0x0f, 0x00, 0x00, 0x00, 0x4d, 0x4c, 0x49, 0x52,
  0x20, 0x43, 0x6f, 0x6e, 0x76, 0x65, 0x72, 0x74, 0x65, 0x64, 0x2e, 0x00,
  0x00, 0x00, 0x0e, 0x00, 0x18, 0x00, 0x04, 0x00, 0x08, 0x00, 0x0c, 0x00,
  0x10, 0x00, 0x14, 0x00, 0x0e, 0x00, 0x00, 0x00, 0x14, 0x00, 0x00, 0x00,
  0x4c, 0x00, 0x00, 0x00, 0x50, 0x00, 0x00, 0x00, 0x54, 0x00, 0x00, 0x00,
  0x6c, 0x00, 0x00, 0x00, 0x0e, 0x00, 0x00, 0x00, 0x4c, 0x1e, 0x00, 0x00,
  0xd8, 0x1d, 0x00, 0x00, 0x30, 0x1d, 0x00, 0x00, 0x84, 0x1c, 0x00, 0x00,
  0x04, 0x1c, 0x00, 0x00, 0x94, 0x1b, 0x00, 0x00, 0x3c, 0x09, 0x00, 0x00,
  0x5c, 0x06, 0x00, 0x00, 0x58, 0x04, 0x00, 0x00, 0x70, 0x03, 0x00, 0x00,
  0xa4, 0x02, 0x00, 0x00, 0xd0, 0x01, 0x00, 0x00, 0x08, 0x01, 0x00, 0x00,
  0x7c, 0x00, 0x00, 0x00, 0x01, 0x00, 0x00, 0x00, 0x00, 0x00, 0x00, 0x00,
  0x01, 0x00, 0x00, 0x00, 0x0d, 0x00, 0x00, 0x00, 0x06, 0x00, 0x00, 0x00,
  0xc8, 0x03, 0x00, 0x00, 0xe4, 0x02, 0x00, 0x00, 0x44, 0x02, 0x00, 0x00,
  0x54, 0x01, 0x00, 0x00, 0xa8, 0x00, 0x00, 0x00, 0x10, 0x00, 0x00, 0x00,
  0x04, 0x00, 0x00, 0x00, 0x6d, 0x61, 0x69, 0x6e, 0x00, 0x00, 0x00, 0x00,
  0x7a, 0xff, 0xff, 0xff, 0x00, 0x00, 0x00, 0x09, 0x04, 0x00, 0x00, 0x00,
  0x1c, 0x00, 0x00, 0x00, 0x10, 0x00, 0x00, 0x00, 0x04, 0x00, 0x00, 0x00,
  0xee, 0xe2, 0xff, 0xff, 0x00, 0x00, 0x80, 0x3f, 0x01, 0x00, 0x00, 0x00,
  0x0d, 0x00, 0x00, 0x00, 0x01, 0x00, 0x00, 0x00, 0x0c, 0x00, 0x00, 0x00,
  0x44, 0xfc, 0xff, 0xff, 0x19, 0x00, 0x00, 0x00, 0x00, 0x00, 0x00, 0x19,
  0x01, 0x00, 0x00, 0x00, 0x78, 0xe2, 0xff, 0xff, 0x14, 0x00, 0x00, 0x00,
  0x0e, 0x00, 0x00, 0x00, 0x18, 0x00, 0x00, 0x00, 0x30, 0x00, 0x00, 0x00,
  0x20, 0x00, 0x00, 0x00, 0x02, 0x00, 0x00, 0x00, 0x01, 0x00, 0x00, 0x00,
  0x0a, 0x00, 0x00, 0x00, 0x08, 0x00, 0x00, 0x00, 0x49, 0x64, 0x65, 0x6e,
  0x74, 0x69, 0x74, 0x79, 0x00, 0x00, 0x00, 0x00, 0x02, 0x00, 0x00, 0x00,
  0xff, 0xff, 0xff, 0xff, 0x0a, 0x00, 0x00, 0x00, 0x60, 0xe3, 0xff, 0xff,
  0x00, 0x00, 0x0e, 0x00, 0x18, 0x00, 0x08, 0x00, 0x0c, 0x00, 0x10, 0x00,
  0x07, 0x00, 0x14, 0x00, 0x0e, 0x00, 0x00, 0x00, 0x00, 0x00, 0x00, 0x08,
  0x03, 0x00, 0x00, 0x00, 0x18, 0x00, 0x00, 0x00, 0x0c, 0x00, 0x00, 0x00,
  0x04, 0x00, 0x00, 0x00, 0x78, 0xe2, 0xff, 0xff, 0x01, 0x00, 0x00, 0x00,
  0x0c, 0x00, 0x00, 0x00, 0x03, 0x00, 0x00, 0x00, 0x0b, 0x00, 0x00, 0x00,
  0x06, 0x00, 0x00, 0x00, 0x03, 0x00, 0x00, 0x00, 0x00, 0xe3, 0xff, 0xff,
  0x14, 0x00, 0x00, 0x00, 0x0d, 0x00, 0x00, 0x00, 0x18, 0x00, 0x00, 0x00,
  0x60, 0x00, 0x00, 0x00, 0x50, 0x00, 0x00, 0x00, 0x02, 0x00, 0x00, 0x00,
  0x01, 0x00, 0x00, 0x00, 0x0a, 0x00, 0x00, 0x00, 0x3a, 0x00, 0x00, 0x00,
  0x73, 0x65, 0x71, 0x75, 0x65, 0x6e, 0x74, 0x69, 0x61, 0x6c, 0x5f, 0x38,
  0x2f, 0x64, 0x65, 0x6e, 0x73, 0x65, 0x5f, 0x31, 0x37, 0x2f, 0x4d, 0x61,
  0x74, 0x4d, 0x75, 0x6c, 0x3b, 0x73, 0x65, 0x71, 0x75, 0x65, 0x6e, 0x74,
  0x69, 0x61, 0x6c, 0x5f, 0x38, 0x2f, 0x64, 0x65, 0x6e, 0x73, 0x65, 0x5f,
  0x31, 0x37, 0x2f, 0x42, 0x69, 0x61, 0x73, 0x41, 0x64, 0x64, 0x00, 0x00,
  0x02, 0x00, 0x00, 0x00, 0xff, 0xff, 0xff, 0xff, 0x0a, 0x00, 0x00, 0x00,
  0x04, 0xe3, 0xff, 0xff, 0x86, 0xfe, 0xff, 0xff, 0x00, 0x00, 0x00, 0x08,
  0x03, 0x00, 0x00, 0x00, 0x24, 0x00, 0x00, 0x00, 0x18, 0x00, 0x00, 0x00,
  0x0c, 0x00, 0x00, 0x00, 0x00, 0x00, 0x06, 0x00, 0x08, 0x00, 0x07, 0x00,
  0x06, 0x00, 0x00, 0x00, 0x00, 0x00, 0x00, 0x01, 0x01, 0x00, 0x00, 0x00,
  0x0b, 0x00, 0x00, 0x00, 0x03, 0x00, 0x00, 0x00, 0x0a, 0x00, 0x00, 0x00,
  0x05, 0x00, 0x00, 0x00, 0x02, 0x00, 0x00, 0x00, 0x90, 0xfd, 0xff, 0xff,
  0x09, 0x00, 0x00, 0x00, 0x00, 0x00, 0x00, 0x09, 0x01, 0x00, 0x00, 0x00,
  0xc4, 0xe3, 0xff, 0xff, 0x14, 0x00, 0x00, 0x00, 0x0c, 0x00, 0x00, 0x00,
  0x18, 0x00, 0x00, 0x00, 0x7c, 0x00, 0x00, 0x00, 0x6c, 0x00, 0x00, 0x00,
  0x02, 0x00, 0x00, 0x00, 0x01, 0x00, 0x00, 0x00, 0x10, 0x00, 0x00, 0x00,
  0x55, 0x00, 0x00, 0x00, 0x73, 0x65, 0x71, 0x75, 0x65, 0x6e, 0x74, 0x69,
  0x61, 0x6c, 0x5f, 0x38, 0x2f, 0x64, 0x65, 0x6e, 0x73, 0x65, 0x5f, 0x31,
  0x36, 0x2f, 0x4d, 0x61, 0x74, 0x4d, 0x75, 0x6c, 0x3b, 0x73, 0x65, 0x71,
  0x75, 0x65, 0x6e, 0x74, 0x69, 0x61, 0x6c, 0x5f, 0x38, 0x2f, 0x64, 0x65,
  0x6e, 0x73, 0x65, 0x5f, 0x31, 0x36, 0x2f, 0x52, 0x65, 0x6c, 0x75, 0x3b,
  0x73, 0x65, 0x71, 0x75, 0x65, 0x6e, 0x74, 0x69, 0x61, 0x6c, 0x5f, 0x38,
  0x2f, 0x64, 0x65, 0x6e, 0x73, 0x65, 0x5f, 0x31, 0x36, 0x2f, 0x42, 0x69,
  0x61, 0x73, 0x41, 0x64, 0x64, 0x00, 0x00, 0x00, 0x02, 0x00, 0x00, 0x00,
  0xff, 0xff, 0xff, 0xff, 0x10, 0x00, 0x00, 0x00, 0xf8, 0xe4, 0xff, 0xff,
  0x00, 0x00, 0x0a, 0x00, 0x10, 0x00, 0x04, 0x00, 0x08, 0x00, 0x0c, 0x00,
  0x0a, 0x00, 0x00, 0x00, 0x02, 0x00, 0x00, 0x00, 0x10, 0x00, 0x00, 0x00,
  0x04, 0x00, 0x00, 0x00, 0x01, 0x00, 0x00, 0x00, 0x0a, 0x00, 0x00, 0x00,
  0x02, 0x00, 0x00, 0x00, 0x09, 0x00, 0x00, 0x00, 0x04, 0x00, 0x00, 0x00,
  0x60, 0xfe, 0xff, 0xff, 0x16, 0x00, 0x00, 0x00, 0x00, 0x00, 0x00, 0x16,
  0x01, 0x00, 0x00, 0x00, 0x94, 0xe4, 0xff, 0xff, 0x14, 0x00, 0x00, 0x00,
  0x0b, 0x00, 0x00, 0x00, 0x18, 0x00, 0x00, 0x00, 0x44, 0x00, 0x00, 0x00,
  0x34, 0x00, 0x00, 0x00, 0x02, 0x00, 0x00, 0x00, 0x01, 0x00, 0x00, 0x00,
  0x48, 0x00, 0x00, 0x00, 0x1e, 0x00, 0x00, 0x00, 0x73, 0x65, 0x71, 0x75,
  0x65, 0x6e, 0x74, 0x69, 0x61, 0x6c, 0x5f, 0x38, 0x2f, 0x66, 0x6c, 0x61,
  0x74, 0x74, 0x65, 0x6e, 0x5f, 0x38, 0x2f, 0x52, 0x65, 0x73, 0x68, 0x61,
  0x70, 0x65, 0x00, 0x00, 0x02, 0x00, 0x00, 0x00, 0xff, 0xff, 0xff, 0xff,
  0x48, 0x00, 0x00, 0x00, 0x90, 0xe5, 0xff, 0xff, 0x00, 0x00, 0x0e, 0x00,
  0x1a, 0x00, 0x08, 0x00, 0x0c, 0x00, 0x10, 0x00, 0x07, 0x00, 0x14, 0x00,
  0x0e, 0x00, 0x00, 0x00, 0x00, 0x00, 0x00, 0x05, 0x01, 0x00, 0x00, 0x00,
  0x3c, 0x00, 0x00, 0x00, 0x30, 0x00, 0x00, 0x00, 0x14, 0x00, 0x00, 0x00,
  0x00, 0x00, 0x0e, 0x00, 0x18, 0x00, 0x17, 0x00, 0x10, 0x00, 0x0c, 0x00,
  0x08, 0x00, 0x04, 0x00, 0x0e, 0x00, 0x00, 0x00, 0x02, 0x00, 0x00, 0x00,
  0x02, 0x00, 0x00, 0x00, 0x02, 0x00, 0x00, 0x00, 0x02, 0x00, 0x00, 0x00,
  0x00, 0x00, 0x00, 0x01, 0x01, 0x00, 0x00, 0x00, 0x09, 0x00, 0x00, 0x00,
  0x01, 0x00, 0x00, 0x00, 0x08, 0x00, 0x00, 0x00, 0x28, 0xff, 0xff, 0xff,
  0x11, 0x00, 0x00, 0x00, 0x00, 0x00, 0x00, 0x11, 0x01, 0x00, 0x00, 0x00,
  0x5c, 0xe5, 0xff, 0xff, 0x14, 0x00, 0x00, 0x00, 0x0a, 0x00, 0x00, 0x00,
  0x20, 0x00, 0x00, 0x00, 0x5c, 0x00, 0x00, 0x00, 0x44, 0x00, 0x00, 0x00,
  0x04, 0x00, 0x00, 0x00, 0x01, 0x00, 0x00, 0x00, 0x03, 0x00, 0x00, 0x00,
  0x03, 0x00, 0x00, 0x00, 0x08, 0x00, 0x00, 0x00, 0x24, 0x00, 0x00, 0x00,
  0x73, 0x65, 0x71, 0x75, 0x65, 0x6e, 0x74, 0x69, 0x61, 0x6c, 0x5f, 0x38,
  0x2f, 0x6d, 0x61, 0x78, 0x5f, 0x70, 0x6f, 0x6f, 0x6c, 0x69, 0x6e, 0x67,
  0x32, 0x64, 0x5f, 0x38, 0x2f, 0x4d, 0x61, 0x78, 0x50, 0x6f, 0x6f, 0x6c,
  0x00, 0x00, 0x00, 0x00, 0x04, 0x00, 0x00, 0x00, 0xff, 0xff, 0xff, 0xff,
  0x03, 0x00, 0x00, 0x00, 0x03, 0x00, 0x00, 0x00, 0x08, 0x00, 0x00, 0x00,
  0x70, 0xe6, 0xff, 0xff, 0x00, 0x00, 0x0e, 0x00, 0x14, 0x00, 0x00, 0x00,
  0x08, 0x00, 0x0c, 0x00, 0x07, 0x00, 0x10, 0x00, 0x0e, 0x00, 0x00, 0x00,
  0x00, 0x00, 0x00, 0x01, 0x30, 0x00, 0x00, 0x00, 0x24, 0x00, 0x00, 0x00,
  0x10, 0x00, 0x00, 0x00, 0x0c, 0x00, 0x10, 0x00, 0x0e, 0x00, 0x04, 0x00,
  0x08, 0x00, 0x0f, 0x00, 0x0c, 0x00, 0x00, 0x00, 0x01, 0x00, 0x00, 0x00,
  0x01, 0x00, 0x00, 0x00, 0x00, 0x00, 0x01, 0x01, 0x01, 0x00, 0x00, 0x00,
  0x08, 0x00, 0x00, 0x00, 0x03, 0x00, 0x00, 0x00, 0x00, 0x00, 0x00, 0x00,
  0x07, 0x00, 0x00, 0x00, 0x01, 0x00, 0x00, 0x00, 0x0c, 0x00, 0x10, 0x00,
  0x0b, 0x00, 0x00, 0x00, 0x0c, 0x00, 0x04, 0x00, 0x0c, 0x00, 0x00, 0x00,
  0x03, 0x00, 0x00, 0x00, 0x00, 0x00, 0x00, 0x03, 0x01, 0x00, 0x00, 0x00,
  0x40, 0xe6, 0xff, 0xff, 0x14, 0x00, 0x00, 0x00, 0x09, 0x00, 0x00, 0x00,
  0x20, 0x00, 0x00, 0x00, 0xc0, 0x00, 0x00, 0x00, 0xa8, 0x00, 0x00, 0x00,
  0x04, 0x00, 0x00, 0x00, 0x01, 0x00, 0x00, 0x00, 0x06, 0x00, 0x00, 0x00,
  0x06, 0x00, 0x00, 0x00, 0x08, 0x00, 0x00, 0x00, 0x8b, 0x00, 0x00, 0x00,
  0x73, 0x65, 0x71, 0x75, 0x65, 0x6e, 0x74, 0x69, 0x61, 0x6c, 0x5f, 0x38,
  0x2f, 0x63, 0x6f, 0x6e, 0x76, 0x32, 0x64, 0x5f, 0x38, 0x2f, 0x52, 0x65,
  0x6c, 0x75, 0x3b, 0x73, 0x65, 0x71, 0x75, 0x65, 0x6e, 0x74, 0x69, 0x61,
  0x6c, 0x5f, 0x38, 0x2f, 0x63, 0x6f, 0x6e, 0x76, 0x32, 0x64, 0x5f, 0x38,
  0x2f, 0x42, 0x69, 0x61, 0x73, 0x41, 0x64, 0x64, 0x3b, 0x73, 0x65, 0x71,
  0x75, 0x65, 0x6e, 0x74, 0x69, 0x61, 0x6c, 0x5f, 0x38, 0x2f, 0x63, 0x6f,
  0x6e, 0x76, 0x32, 0x64, 0x5f, 0x38, 0x2f, 0x43, 0x6f, 0x6e, 0x76, 0x32,
  0x44, 0x3b, 0x73, 0x65, 0x71, 0x75, 0x65, 0x6e, 0x74, 0x69, 0x61, 0x6c,
  0x5f, 0x38, 0x2f, 0x63, 0x6f, 0x6e, 0x76, 0x32, 0x64, 0x5f, 0x38, 0x2f,
  0x42, 0x69, 0x61, 0x73, 0x41, 0x64, 0x64, 0x2f, 0x52, 0x65, 0x61, 0x64,
  0x56, 0x61, 0x72, 0x69, 0x61, 0x62, 0x6c, 0x65, 0x4f, 0x70, 0x2f, 0x72,
  0x65, 0x73, 0x6f, 0x75, 0x72, 0x63, 0x65, 0x00, 0x04, 0x00, 0x00, 0x00,
  0xff, 0xff, 0xff, 0xff, 0x06, 0x00, 0x00, 0x00, 0x06, 0x00, 0x00, 0x00,
  0x08, 0x00, 0x00, 0x00, 0xa4, 0xe6, 0xff, 0xff, 0xb2, 0xe7, 0xff, 0xff,
  0x04, 0x00, 0x00, 0x00, 0x20, 0x01, 0x00, 0x00, 0x73, 0xee, 0xf3, 0xbe,
  0x27, 0xbe, 0x94, 0xbd, 0x5c, 0x51, 0xf3, 0x3e, 0xa2, 0x06, 0xa8, 0x3d,
  0xc7, 0x3f, 0x85, 0xbe, 0xfc, 0x56, 0x2c, 0x3f, 0x3a, 0xb5, 0x46, 0x3f,
  0x28, 0xec, 0x55, 0x3e, 0x4e, 0x7e, 0x34, 0xbf, 0x99, 0xff, 0x8f, 0x3c,
  0x85, 0x3a, 0x57, 0xbe, 0x8e, 0x68, 0x59, 0x3c, 0x77, 0xf9, 0x25, 0xbe,
  0xb8, 0xe4, 0x2a, 0x3d, 0xe1, 0x97, 0xa9, 0xbd, 0x3c, 0x2e, 0x86, 0xbe,
  0x29, 0x2d, 0x91, 0xbd, 0xb4, 0x5e, 0x9f, 0xbd, 0xb0, 0x18, 0x05, 0x3f,
  0x2c, 0x81, 0x3a, 0x3f, 0x2e, 0xdd, 0x94, 0x3e, 0x8b, 0x82, 0x2c, 0xbf,
  0x68, 0x0c, 0x6b, 0x3f, 0x31, 0xcc, 0x3a, 0x3f, 0x40, 0x52, 0x25, 0x3e,
  0x4f, 0x8e, 0x1c, 0x3f, 0xc3, 0x5a, 0x21, 0x3f, 0x0a, 0x83, 0x18, 0x3f,
  0x20, 0x1f, 0xd2, 0x3c, 0xfa, 0xe8, 0xd4, 0x3e, 0x9c, 0x08, 0x0a, 0x3f,
  0x0f, 0xd8, 0x76, 0x3f, 0xb4, 0x92, 0x24, 0x3f, 0xfd, 0x10, 0x67, 0xbd,
  0xea, 0xe5, 0x42, 0x3f, 0xcf, 0x9b, 0x49, 0x3d, 0xb4, 0xed, 0x39, 0x3f,
  0x9a, 0xda, 0x67, 0x3f, 0xc1, 0x57, 0x65, 0x3f, 0xc5, 0x92, 0x59, 0xbd,
  0xd6, 0xd1, 0x75, 0xbd, 0x83, 0x37, 0x5b, 0xbb, 0x32, 0x67, 0x36, 0xbf,
  0x3f, 0x29, 0x97, 0xbf, 0x98, 0x73, 0x09, 0xbf, 0xa0, 0x35, 0x87, 0xbc,
  0xa0, 0x48, 0x1c, 0xbe, 0xcb, 0x72, 0x80, 0xbe, 0xf8, 0x84, 0xd8, 0xbc,
  0x84, 0x18, 0x63, 0xbe, 0xef, 0xa7, 0x61, 0xbe, 0xee, 0xbd, 0x9a, 0xbd,
  0x94, 0x05, 0x7a, 0xbe, 0xb4, 0x0d, 0x52, 0xbe, 0x18, 0xfd, 0x9d, 0x3e,
  0x8e, 0xf1, 0x73, 0xbe, 0x1b, 0x2b, 0xb8, 0xbe, 0xc3, 0xaf, 0x04, 0xbf,
  0x36, 0xb0, 0x7c, 0xbf, 0xf1, 0xee, 0x50, 0xbf, 0x3c, 0xcc, 0x52, 0x3f,
  0x13, 0xe3, 0x3d, 0x3e, 0xc7, 0x2b, 0x54, 0x3f, 0x68, 0x3c, 0x42, 0xbf,
  0xfc, 0x12, 0x96, 0x3e, 0x6c, 0x79, 0xe7, 0x3e, 0x64, 0x24, 0xde, 0xbe,
  0x5c, 0x8b, 0x25, 0x3f, 0x6b, 0xa7, 0x24, 0xbd, 0x1a, 0xe4, 0x10, 0xbf,
  0x8b, 0xe4, 0x63, 0x3e, 0x09, 0xaa, 0x46, 0xbe, 0xaa, 0xe8, 0xff, 0xff,
  0x10, 0x00, 0x00, 0x00, 0x08, 0x00, 0x00, 0x00, 0x1c, 0x00, 0x00, 0x00,
  0x3c, 0x00, 0x00, 0x00, 0x04, 0x00, 0x00, 0x00, 0x08, 0x00, 0x00, 0x00,
  0x03, 0x00, 0x00, 0x00, 0x03, 0x00, 0x00, 0x00, 0x01, 0x00, 0x00, 0x00,
  0x1c, 0x00, 0x00, 0x00, 0x73, 0x65, 0x71, 0x75, 0x65, 0x6e, 0x74, 0x69,
  0x61, 0x6c, 0x5f, 0x38, 0x2f, 0x63, 0x6f, 0x6e, 0x76, 0x32, 0x64, 0x5f,
  0x38, 0x2f, 0x43, 0x6f, 0x6e, 0x76, 0x32, 0x44, 0x00, 0x00, 0x00, 0x00,
  0x20, 0xe8, 0xff, 0xff, 0x2e, 0xe9, 0xff, 0xff, 0x04, 0x00, 0x00, 0x00,
  0x80, 0x02, 0x00, 0x00, 0xd5, 0xbb, 0xbc, 0x3e, 0xb3, 0xc4, 0x85, 0xbf,
  0x50, 0x84, 0x11, 0xbd, 0xf8, 0x80, 0x4b, 0x3f, 0xf9, 0xc5, 0x03, 0xbe,
  0x54, 0xf2, 0x52, 0xbe, 0x0e, 0xe4, 0xfa, 0x3e, 0x31, 0x8d, 0x69, 0xbf,
  0x83, 0xd0, 0xb0, 0xbe, 0xcd, 0xe1, 0x09, 0xbf, 0xc9, 0x5b, 0xf6, 0x3e,
  0x39, 0x7b, 0x0b, 0x3e, 0x70, 0xfa, 0x0a, 0xbf, 0x36, 0x64, 0x76, 0xbe,
  0x44, 0x5b, 0x03, 0xbf, 0x7f, 0x1f, 0x81, 0xbe, 0xe6, 0x11, 0xef, 0xbd,
  0x4f, 0x29, 0xf0, 0x3e, 0x18, 0xfc, 0x80, 0x3e, 0x57, 0xce, 0x6a, 0xbe,
  0x27, 0xea, 0x47, 0xbf, 0xdc, 0x01, 0xbb, 0x3e, 0x46, 0x4a, 0x82, 0xbf,
  0xa3, 0x46, 0x9a, 0xbd, 0xae, 0x26, 0x32, 0xbd, 0x48, 0xcf, 0x31, 0xbe,
  0xcf, 0x17, 0x09, 0xbe, 0xa0, 0x3c, 0xdb, 0xbe, 0xb0, 0x3f, 0x45, 0xbf,
  0x17, 0x68, 0xcb, 0xbd, 0x8a, 0x0e, 0x71, 0x3f, 0x43, 0xe4, 0x2f, 0x3f,
  0x7c, 0xa6, 0x9f, 0x3e, 0xf9, 0x57, 0x85, 0x3d, 0x97, 0x9c, 0x72, 0xbe,
  0xd0, 0x04, 0x47, 0x3f, 0x01, 0x0e, 0x3f, 0xbf, 0xf3, 0x8e, 0x09, 0xbf,
  0xf9, 0x16, 0xae, 0xbe, 0x88, 0x47, 0x1e, 0xbf, 0x9f, 0xb2, 0xf9, 0xbe,
  0xb1, 0xad, 0xe8, 0x3e, 0x51, 0x44, 0xa5, 0xbf, 0xd8, 0x82, 0x94, 0xbe,
  0x43, 0x8d, 0xc3, 0xbe, 0x39, 0xaa, 0xe1, 0xbe, 0xbd, 0x17, 0x41, 0xbf,
  0xd3, 0x76, 0x26, 0x3f, 0xff, 0xec, 0x65, 0xbd, 0x75, 0x81, 0xad, 0x3e,
  0x1d, 0x35, 0xe0, 0x3e, 0xc5, 0xf0, 0xdd, 0x3e, 0x92, 0x50, 0x7c, 0x3f,
  0xcf, 0xf0, 0x7d, 0xbf, 0xd0, 0xf5, 0x1e, 0xbf, 0x4b, 0xbb, 0x45, 0xbf,
  0xbd, 0xb8, 0xcf, 0x3e, 0xd7, 0x9a, 0x6b, 0xbd, 0x2c, 0x2e, 0x07, 0xbf,
  0xe2, 0x3a, 0x2b, 0xbe, 0x42, 0xd7, 0x0d, 0x3f, 0x78, 0x10, 0x0b, 0x3e,
  0x07, 0xae, 0xa4, 0xbe, 0xed, 0x91, 0x1f, 0xbf, 0x7b, 0x2b, 0x27, 0xbe,
  0x4d, 0x0b, 0xe2, 0xbd, 0xf5, 0x5e, 0xd3, 0xbe, 0x94, 0xff, 0xec, 0x3d,
  0x8f, 0x4b, 0x10, 0xbf, 0x3d, 0x4b, 0x4d, 0xbd, 0xab, 0x05, 0xef, 0x3e,
  0x27, 0xb7, 0x7f, 0x3f, 0x22, 0xcc, 0xc2, 0x3e, 0xfe, 0x25, 0x0c, 0x3f,
  0x5f, 0xdc, 0xe5, 0x3e, 0xe0, 0xa2, 0xe5, 0x3e, 0x38, 0xd2, 0x48, 0xbf,
  0xdc, 0x53, 0x45, 0x3e, 0xe1, 0xe6, 0xb3, 0x3e, 0x4e, 0xdc, 0x04, 0xbf,
  0x0a, 0x00, 0x59, 0xbe, 0xcd, 0x22, 0xa5, 0x3e, 0x39, 0xb8, 0xbf, 0xbe,
  0x21, 0xfe, 0x0f, 0x3e, 0x5a, 0xcc, 0xf3, 0xbe, 0x10, 0x94, 0x12, 0xbf,
  0xff, 0xed, 0x64, 0xbe, 0x83, 0x0c, 0x1f, 0x3e, 0x2d, 0x43, 0xae, 0xbb,
  0xd3, 0x2b, 0x5f, 0xbd, 0x01, 0x3f, 0x54, 0x3f, 0x50, 0x1c, 0x1f, 0x3e,
  0xec, 0xf5, 0x44, 0x3f, 0x32, 0x4d, 0xd1, 0x3e, 0xe3, 0x53, 0x72, 0xbf,
  0xd5, 0xd0, 0x84, 0xbd, 0xdc, 0x50, 0x8d, 0xbe, 0x84, 0x69, 0x0d, 0x3f,
  0x33, 0x76, 0xae, 0xbf, 0x2c, 0xd9, 0x1a, 0x3f, 0x81, 0xfa, 0x0b, 0x3f,
  0x37, 0xcc, 0xee, 0xbc, 0xa4, 0xd9, 0xc8, 0x3d, 0x96, 0xb4, 0xb0, 0xbe,
  0x03, 0x1b, 0x91, 0xbc, 0x47, 0x43, 0x1b, 0xbf, 0x72, 0x85, 0xc3, 0x3e,
  0x9f, 0x95, 0xfa, 0xbe, 0x30, 0xfc, 0xfd, 0xbe, 0xa0, 0x1f, 0xb1, 0x3e,
  0x67, 0x7e, 0x12, 0x3f, 0x6d, 0xd3, 0x63, 0xbf, 0x53, 0x41, 0xfa, 0x3c,
  0xb4, 0x02, 0x50, 0xbf, 0xad, 0xdb, 0xfe, 0x3e, 0xff, 0xa1, 0x4e, 0xbc,
  0xc7, 0x2e, 0xbe, 0xbe, 0x97, 0x9a, 0x5c, 0xbf, 0x2f, 0xc8, 0x14, 0x3f,
  0xb2, 0x4f, 0x1e, 0x3e, 0x47, 0x3d, 0x2b, 0xbe, 0xb5, 0x82, 0x90, 0x3e,
  0xee, 0x18, 0xed, 0xbe, 0x9b, 0x38, 0xd0, 0xbb, 0xd1, 0x1d, 0xf1, 0x3e,
  0x6a, 0xbc, 0x47, 0xbe, 0x62, 0xca, 0x9c, 0x3e, 0xb3, 0xce, 0x96, 0x3e,
  0xe1, 0x99, 0x5e, 0xbe, 0xaf, 0xbc, 0x02, 0x3f, 0x09, 0x07, 0xef, 0x3d,
  0xd8, 0x27, 0x6b, 0x3d, 0x77, 0x1f, 0x7d, 0x3e, 0x1f, 0x50, 0x24, 0x3f,
  0x16, 0x3a, 0x9c, 0x3e, 0xd9, 0x71, 0x3b, 0xbf, 0x61, 0x15, 0x82, 0xbc,
  0xc8, 0x9e, 0x7f, 0x3e, 0x9c, 0xe7, 0x0c, 0xbf, 0x42, 0x56, 0xb9, 0x3d,
  0xa7, 0x14, 0xe5, 0x3d, 0xbe, 0x9e, 0xaf, 0x3e, 0x26, 0xc8, 0xac, 0xbd,
  0x3e, 0xaf, 0xbe, 0x3d, 0xe2, 0xfa, 0x9e, 0x3e, 0xd7, 0xfa, 0xa1, 0x3e,
  0x56, 0x54, 0xd0, 0x3e, 0x31, 0x59, 0x79, 0x3d, 0x77, 0x38, 0xdb, 0x3e,
  0x49, 0x14, 0x63, 0x3d, 0xe6, 0xc3, 0xe0, 0x3e, 0xaf, 0x80, 0x37, 0x3f,
  0xc6, 0x78, 0xb2, 0xbe, 0x50, 0x4a, 0x83, 0xbf, 0xa6, 0xa0, 0xf2, 0xbe,
  0x6c, 0x2f, 0xd1, 0xbe, 0xd2, 0x9d, 0xb3, 0x3e, 0x68, 0x58, 0x79, 0xbd,
  0x5f, 0x4d, 0x3a, 0xbf, 0xac, 0x62, 0x0b, 0x3e, 0x86, 0xeb, 0xff, 0xff,
  0x10, 0x00, 0x00, 0x00, 0x07, 0x00, 0x00, 0x00, 0x14, 0x00, 0x00, 0x00,
  0x34, 0x00, 0x00, 0x00, 0x02, 0x00, 0x00, 0x00, 0x0a, 0x00, 0x00, 0x00,
  0x10, 0x00, 0x00, 0x00, 0x1c, 0x00, 0x00, 0x00, 0x73, 0x65, 0x71, 0x75,
  0x65, 0x6e, 0x74, 0x69, 0x61, 0x6c, 0x5f, 0x38, 0x2f, 0x64, 0x65, 0x6e,
  0x73, 0x65, 0x5f, 0x31, 0x37, 0x2f, 0x4d, 0x61, 0x74, 0x4d, 0x75, 0x6c,
  0x00, 0x00, 0x00, 0x00, 0xf4, 0xea, 0xff, 0xff, 0x02, 0xec, 0xff, 0xff,
  0x04, 0x00, 0x00, 0x00, 0x00, 0x12, 0x00, 0x00, 0xba, 0x8f, 0x0f, 0x3e,
  0x86, 0xef, 0x54, 0xbe, 0x89, 0xf9, 0x3b, 0xbe, 0xb5, 0x59, 0xd0, 0x3d,
  0x2e, 0x1f, 0x32, 0xbe, 0xa0, 0x61, 0x28, 0xbd, 0xd9, 0x1f, 0xaf, 0xbd,
  0x98, 0xfe, 0x17, 0xbd, 0xd9, 0xe0, 0x7c, 0xbe, 0x84, 0xaf, 0xa2, 0x3d,
  0xe8, 0xc0, 0x36, 0xbe, 0xda, 0x87, 0x94, 0xbd, 0xa0, 0xa0, 0x2f, 0xbc,
  0xe0, 0xaa, 0xc9, 0x3d, 0xdc, 0xfe, 0x9f, 0xbd, 0xde, 0x36, 0x2b, 0xbe,
  0xe2, 0x57, 0x58, 0xbe, 0xed, 0xb3, 0x35, 0xbe, 0x78, 0xb1, 0x7f, 0x3d,
  0x07, 0x5b, 0x2a, 0xbe, 0x15, 0x6e, 0x81, 0x3e, 0x80, 0xd4, 0x21, 0x3b,
  0xc6, 0x94, 0x71, 0x3e, 0x2c, 0x1f, 0x22, 0x3e, 0x1d, 0x40, 0x17, 0x3e,
  0x00, 0x45, 0x41, 0x3e, 0xa1, 0x0f, 0x81, 0xbe, 0xd5, 0x38, 0x95, 0xbd,
  0x5a, 0xfe, 0x55, 0xbe, 0x8e, 0xfc, 0x2e, 0xbe, 0xbe, 0x26, 0x46, 0x3e,
  0xae, 0x4c, 0xb0, 0xbd, 0x7d, 0xb5, 0x30, 0xbe, 0x64, 0x33, 0x43, 0x3e,
  0xf0, 0x23, 0x1e, 0xbe, 0x93, 0x07, 0x0f, 0xbe, 0xa8, 0xb1, 0xd1, 0x3d,
  0xfd, 0x1a, 0x6b, 0xbe, 0x4d, 0xd3, 0x9c, 0x3d, 0xc0, 0xf5, 0x8c, 0x3c,
  0x12, 0x6f, 0x7f, 0x3d, 0x0c, 0xa7, 0x00, 0x3e, 0x48, 0x8d, 0x80, 0xbd,
  0x80, 0xd9, 0x59, 0x3e, 0x8e, 0xea, 0x40, 0x3e, 0x28, 0xeb, 0xab, 0x3d,
  0x08, 0xfb, 0xd9, 0xbd, 0x78, 0x1d, 0x85, 0x3d, 0x95, 0x04, 0xe1, 0x3c,
  0xe8, 0x98, 0x1d, 0x3d, 0xff, 0x6b, 0x98, 0x3d, 0x82, 0xfb, 0x4e, 0x3c,
  0xf7, 0xdb, 0x9c, 0xbd, 0x70, 0x73, 0x5f, 0x3d, 0xd8, 0xec, 0x8f, 0x3d,
  0xde, 0x68, 0x1f, 0xbe, 0x9e, 0xd5, 0xd6, 0x3d, 0x78, 0xb7, 0x68, 0xbe,
  0xde, 0x87, 0x5a, 0x3e, 0x53, 0xce, 0x81, 0x3d, 0x98, 0x2c, 0xa3, 0x3d,
  0xc2, 0x7f, 0x53, 0xbe, 0xfa, 0x68, 0x24, 0x3e, 0x20, 0xf8, 0x47, 0x3c,
  0x17, 0xba, 0x9b, 0xbd, 0x90, 0xea, 0x41, 0x3d, 0x47, 0xf5, 0xfe, 0xbc,
  0x2f, 0x7a, 0x3c, 0xbd, 0xf8, 0x25, 0x87, 0xbd, 0x44, 0xee, 0x56, 0xbe,
  0x4e, 0x9d, 0x16, 0x3e, 0xb0, 0x9c, 0x7c, 0x3d, 0x0f, 0x03, 0x89, 0x3d,
  0x61, 0x68, 0xdd, 0x3d, 0x9e, 0xff, 0xc2, 0x3e, 0xf2, 0xb0, 0x5c, 0x3d,
  0x90, 0x09, 0x4b, 0xbe, 0xf9, 0x4d, 0x08, 0xbe, 0x94, 0x6b, 0x95, 0x3b,
  0xe3, 0x54, 0x9a, 0xbe, 0x70, 0x28, 0x02, 0xbe, 0xa4, 0xc3, 0x6c, 0x3d,
  0xa6, 0x89, 0x02, 0xbe, 0x8e, 0xab, 0x4d, 0xbe, 0xca, 0x21, 0xd0, 0xbe,
  0x28, 0x8d, 0x12, 0xbd, 0x18, 0x99, 0x3a, 0x3f, 0x3e, 0xfd, 0x72, 0xbe,
  0x6a, 0xa0, 0xa3, 0xbe, 0xb8, 0xf1, 0x71, 0xbe, 0xaa, 0x82, 0xa6, 0xbe,
  0xd6, 0x2d, 0xb8, 0xbc, 0xcb, 0x0b, 0x1b, 0x3e, 0xc0, 0xd2, 0xe4, 0xbb,
  0x50, 0x6f, 0x0d, 0x3e, 0x9a, 0xa0, 0xb0, 0xbe, 0x28, 0x44, 0xb7, 0x3e,
  0x50, 0xe1, 0xdd, 0xbd, 0xd3, 0xee, 0x94, 0x3d, 0xda, 0x13, 0x17, 0x3e,
  0x90, 0x55, 0xf9, 0x3e, 0x48, 0xeb, 0x51, 0x3d, 0x20, 0xb4, 0xed, 0x3d,
  0xb3, 0xb9, 0x8b, 0xbe, 0x28, 0xa8, 0x9b, 0x3e, 0x16, 0xaf, 0x44, 0xbe,
  0xaa, 0x05, 0x28, 0x3f, 0xca, 0x6f, 0x13, 0x3f, 0xc2, 0x04, 0x04, 0x3f,
  0xd0, 0x98, 0x59, 0x3d, 0xf1, 0x1f, 0x97, 0xbe, 0x15, 0x14, 0x64, 0x3e,
  0xe1, 0xcf, 0x93, 0x3d, 0x2f, 0x7d, 0x5b, 0x3e, 0xed, 0x45, 0xe7, 0xbd,
  0x4a, 0x27, 0xa9, 0xbe, 0x93, 0x95, 0x75, 0xbe, 0xa8, 0xdb, 0x36, 0x3e,
  0xe8, 0x2d, 0x39, 0x3f, 0x4d, 0xc4, 0x36, 0xbf, 0xfd, 0xdf, 0x56, 0x3d,
  0x8c, 0x40, 0xc3, 0xbd, 0x1a, 0x24, 0x59, 0xbe, 0x0b, 0x65, 0xbe, 0xbd,
  0xbf, 0xe9, 0x9b, 0xbe, 0x26, 0xf1, 0x61, 0xbe, 0x4f, 0x24, 0xf2, 0x3e,
  0x7d, 0x00, 0x0d, 0x3e, 0xf7, 0x82, 0xe6, 0x3c, 0x80, 0x29, 0xc2, 0x3b,
  0xb2, 0x03, 0xaf, 0x3d, 0x6c, 0xa9, 0xd4, 0xbd, 0x81, 0xa9, 0xfb, 0x3c,
  0x80, 0xc2, 0x7e, 0x3b, 0x26, 0xbb, 0xb3, 0xbe, 0xf6, 0xb6, 0xd6, 0xbd,
  0xce, 0x85, 0x1d, 0x3f, 0xaa, 0x3c, 0x22, 0x3e, 0xb3, 0x87, 0x06, 0x3f,
  0xdb, 0x6a, 0xe1, 0x3e, 0xce, 0xa2, 0x6b, 0xbf, 0x77, 0x46, 0x71, 0xbe,
  0xc6, 0x2f, 0xb6, 0x3e, 0x51, 0xc1, 0xc9, 0xbc, 0x24, 0x12, 0x67, 0x3e,
  0xb9, 0x91, 0xa1, 0x3d, 0xd9, 0x87, 0x19, 0xbd, 0xb6, 0xea, 0x8a, 0xbe,
  0x78, 0x28, 0x1a, 0x3f, 0x84, 0x24, 0xae, 0x3d, 0x5d, 0x53, 0x2f, 0xbe,
  0x48, 0x78, 0xfc, 0x3e, 0xe6, 0x25, 0x22, 0xbd, 0xa6, 0x35, 0x17, 0x3e,
  0xe3, 0x7f, 0x19, 0x3f, 0x4b, 0x91, 0xaf, 0x3e, 0x12, 0x80, 0x73, 0x3e,
  0x9a, 0xfd, 0x2e, 0x3e, 0x75, 0x82, 0x18, 0xbf, 0x67, 0x7c, 0xb4, 0xbe,
  0x04, 0x74, 0x9c, 0x3e, 0x21, 0x2b, 0xd9, 0x3d, 0xbd, 0x4a, 0x4c, 0x3f,
  0xfb, 0x1e, 0xe8, 0x3e, 0x32, 0x4c, 0xc4, 0xbe, 0x54, 0x39, 0x39, 0x3e,
  0xe6, 0xca, 0xf5, 0xbe, 0xf1, 0x40, 0x59, 0x3e, 0x1e, 0x58, 0xaf, 0x3e,
  0x23, 0x4c, 0x0c, 0xbe, 0xdc, 0x3b, 0x69, 0xbe, 0x32, 0x53, 0x45, 0xbd,
  0x06, 0x12, 0x50, 0xbd, 0x8b, 0x88, 0x81, 0xbe, 0x7c, 0x49, 0x18, 0x3e,
  0xdf, 0xf1, 0x63, 0x3d, 0x82, 0x73, 0x4c, 0x3e, 0xa4, 0x18, 0xd0, 0xbc,
  0x0a, 0x61, 0x89, 0x3e, 0x0e, 0x4e, 0x82, 0x3e, 0x6f, 0xc6, 0x1f, 0x3f,
  0x76, 0xe9, 0xe8, 0xbd, 0x91, 0x14, 0x53, 0xbe, 0x17, 0x14, 0x4d, 0x3e,
  0xb7, 0x9f, 0x3a, 0xbe, 0x5f, 0x5b, 0x5f, 0x3d, 0x99, 0xf4, 0xd0, 0x3d,
  0xf6, 0x58, 0xd9, 0x3e, 0x55, 0xc2, 0xc0, 0x3d, 0x94, 0xc0, 0xb8, 0x3d,
  0xb8, 0xca, 0x92, 0x3e, 0x53, 0x4d, 0x07, 0x3f, 0xf6, 0x60, 0x93, 0xbd,
  0x76, 0x5b, 0x6e, 0xbe, 0x43, 0x98, 0x00, 0xbf, 0x15, 0xe4, 0xa2, 0xbe,
  0x62, 0x5f, 0x52, 0xbe, 0x7c, 0x5e, 0x32, 0xbd, 0x8b, 0xbd, 0xa3, 0x3e,
  0x9a, 0xd8, 0x61, 0xbe, 0x99, 0xb0, 0x61, 0x3d, 0x66, 0x38, 0xfb, 0xbd,
  0x1e, 0xa0, 0xde, 0x3d, 0x8c, 0x65, 0xe8, 0xbd, 0xad, 0xdf, 0x03, 0x3f,
  0xf3, 0xc8, 0x83, 0x3e, 0x2a, 0xe0, 0xae, 0xbd, 0xf9, 0x33, 0x4e, 0x3e,
  0x23, 0x71, 0x06, 0xbf, 0xb4, 0x18, 0x10, 0xbe, 0xc5, 0xde, 0x16, 0xbe,
  0x60, 0x8f, 0x0e, 0xbd, 0xf4, 0xb1, 0x2c, 0x3f, 0x5e, 0x9a, 0x4e, 0xbe,
  0x54, 0x73, 0xe4, 0xbd, 0xc3, 0xc9, 0xb2, 0x3e, 0x1d, 0xb3, 0x12, 0x3f,
  0xfd, 0x54, 0x2e, 0xbe, 0x20, 0xaf, 0x99, 0x3d, 0xa7, 0xd3, 0xc8, 0x3e,
  0x35, 0x14, 0x45, 0x3f, 0x0e, 0x2d, 0x48, 0xbe, 0xb1, 0x87, 0x93, 0xbd,
  0x21, 0x76, 0xcb, 0x3e, 0xe2, 0x8a, 0x04, 0x3e, 0x12, 0xf7, 0xdd, 0x3d,
  0x8a, 0x6a, 0x23, 0xbc, 0x99, 0x0c, 0xa5, 0xbd, 0xda, 0xf8, 0x1c, 0x3f,
  0xf2, 0x79, 0x4d, 0x3e, 0xab, 0x9f, 0x50, 0xbe, 0x74, 0xd6, 0xed, 0x3d,
  0x7e, 0x75, 0x87, 0x3e, 0x5c, 0xed, 0xa5, 0xbd, 0xcc, 0x39, 0xef, 0x3c,
  0xd3, 0x51, 0xaa, 0x3c, 0x97, 0x97, 0x5f, 0xbe, 0x04, 0x06, 0x02, 0xbd,
  0xf5, 0xb0, 0xd7, 0x3d, 0x20, 0x4d, 0x47, 0x3f, 0x41, 0x9f, 0x68, 0xbe,
  0x20, 0xeb, 0x23, 0x3e, 0x3b, 0x6a, 0x9e, 0xbe, 0x3c, 0x98, 0x2a, 0xbe,
  0xbb, 0x1a, 0xd2, 0x3d, 0x80, 0x08, 0x33, 0xbc, 0x55, 0x46, 0xa6, 0x3e,
  0x79, 0x0e, 0xe4, 0xbe, 0xcd, 0xe0, 0xac, 0x3e, 0x12, 0xdb, 0x4a, 0xbe,
  0x72, 0xd3, 0x8c, 0xbe, 0x99, 0xd1, 0x34, 0xbe, 0x0e, 0xa4, 0x85, 0x3e,
  0x00, 0x5d, 0x02, 0xbc, 0x2c, 0x00, 0xeb, 0x3e, 0x49, 0x23, 0xfe, 0x3e,
  0x9e, 0xb7, 0x01, 0x3f, 0xa5, 0x02, 0x3f, 0x3d, 0xac, 0xcc, 0x97, 0x3e,
  0x02, 0xdd, 0x36, 0x3e, 0x4b, 0xe4, 0xdb, 0x3e, 0xe6, 0x7c, 0x4d, 0x3e,
  0x66, 0x49, 0xf6, 0x3e, 0x3e, 0xb2, 0x22, 0x3e, 0x0b, 0xc2, 0x33, 0x3f,
  0x75, 0xa8, 0xd7, 0xbd, 0x91, 0x2d, 0x0a, 0x3f, 0x40, 0xe1, 0x29, 0x3f,
  0xe8, 0xf1, 0x15, 0x3f, 0x9b, 0xd9, 0x75, 0xbe, 0x74, 0xe1, 0x2f, 0xbe,
  0x92, 0x30, 0x8e, 0x3e, 0x85, 0x2f, 0xb5, 0x3e, 0x08, 0x16, 0x04, 0x3e,
  0xee, 0x6c, 0xdd, 0x3e, 0xf8, 0x3f, 0xd4, 0x3e, 0xaf, 0xbc, 0xbd, 0xbe,
  0x80, 0xd6, 0x13, 0x3e, 0x50, 0x42, 0x29, 0x3f, 0xff, 0xca, 0xf2, 0xbd,
  0xd6, 0x70, 0x14, 0x3f, 0x2c, 0x0b, 0x40, 0x3e, 0x9b, 0xaf, 0x50, 0x3f,
  0x8a, 0xe9, 0x02, 0x3f, 0x62, 0x6b, 0xbe, 0xbe, 0x10, 0x06, 0x0b, 0x3e,
  0x59, 0x8d, 0xc1, 0x3d, 0x93, 0x65, 0xe6, 0xbe, 0x85, 0xe2, 0x9b, 0xbe,
  0xb5, 0x17, 0xf8, 0x3c, 0x12, 0x84, 0x80, 0xbe, 0xc7, 0xcd, 0xa5, 0xbd,
  0xcf, 0x14, 0x11, 0x3f, 0x51, 0xd1, 0x06, 0xbe, 0xef, 0x9f, 0xbd, 0x3d,
  0xc5, 0x72, 0x3b, 0x3d, 0x9e, 0x8b, 0xc0, 0x3e, 0xfa, 0xd4, 0x72, 0x3e,
  0x47, 0xba, 0x40, 0xbd, 0x37, 0xd2, 0x88, 0x3d, 0xdc, 0x1d, 0x71, 0xbe,
  0x84, 0xa9, 0xd0, 0x3d, 0x2e, 0xc6, 0x14, 0x3d, 0x8c, 0xb4, 0x88, 0xbe,
  0x44, 0x06, 0xf1, 0x3d, 0x95, 0xdf, 0xba, 0xbd, 0x2a, 0xc0, 0x7a, 0x3e,
  0xbe, 0xbd, 0x7a, 0x3e, 0x28, 0x2d, 0xde, 0x3d, 0x6c, 0x38, 0xec, 0xbd,
  0xf1, 0x51, 0x02, 0xbe, 0x75, 0xb1, 0x9c, 0x39, 0x93, 0x48, 0x8a, 0x3e,
  0x21, 0xe5, 0x18, 0x3e, 0xf8, 0x98, 0x16, 0x3e, 0xa3, 0xb8, 0xf1, 0xbd,
  0x46, 0xd3, 0xaf, 0xbe, 0x80, 0x90, 0x37, 0x3b, 0x04, 0x6b, 0xb8, 0xbe,
  0x9d, 0xab, 0xbc, 0xbe, 0x5a, 0xdc, 0xa2, 0x3e, 0x61, 0xeb, 0x75, 0x3e,
  0xa6, 0x74, 0x51, 0xbe, 0xe5, 0xc9, 0x9b, 0x3e, 0x5f, 0x42, 0xda, 0x3e,
  0x5c, 0x31, 0x32, 0x3e, 0xc5, 0x16, 0x83, 0xbe, 0x5f, 0x9f, 0xcb, 0x3e,
  0x92, 0x7d, 0xdd, 0x3d, 0x7e, 0xf9, 0x76, 0xbe, 0x63, 0xa7, 0xaa, 0xbd,
  0x6a, 0x28, 0x54, 0xbe, 0x29, 0x39, 0x53, 0x3e, 0x00, 0x73, 0x6c, 0x3b,
  0x36, 0xa7, 0xe6, 0x3e, 0xe1, 0x1a, 0x3a, 0xbf, 0x54, 0xa5, 0x2c, 0x3d,
  0xca, 0x78, 0x8b, 0xbb, 0xe5, 0xe9, 0x50, 0x3c, 0x8b, 0xda, 0x05, 0xbe,
  0x7f, 0x28, 0x9e, 0x3e, 0x30, 0xff, 0x47, 0xbc, 0xb5, 0x69, 0x9d, 0x3e,
  0xd0, 0x83, 0xaf, 0xbc, 0x6c, 0x9e, 0xd6, 0x3e, 0xb2, 0x1f, 0x68, 0x3e,
  0x52, 0x0a, 0x1e, 0xbd, 0x1a, 0x67, 0x30, 0xbc, 0x44, 0x90, 0x9e, 0x3e,
  0x1e, 0x7b, 0x60, 0x3e, 0x55, 0x04, 0x0b, 0xbe, 0x61, 0xfb, 0x43, 0xbe,
  0x03, 0xcf, 0x0c, 0x3f, 0x20, 0x43, 0x84, 0xbd, 0x75, 0x88, 0xfb, 0x3e,
  0x3c, 0xe5, 0x13, 0xbe, 0xad, 0xdb, 0x0c, 0xbd, 0xc0, 0x4c, 0x78, 0x3d,
  0x1c, 0x7d, 0x26, 0xbf, 0x82, 0x26, 0xcb, 0xbc, 0x28, 0xac, 0xd5, 0x3c,
  0x1c, 0xa9, 0x5c, 0xbe, 0x22, 0x37, 0x91, 0x3e, 0x80, 0xa3, 0x0d, 0x3e,
  0x7e, 0x36, 0x2a, 0xbf, 0x10, 0x46, 0x88, 0xbc, 0xfe, 0xee, 0x32, 0x3e,
  0x17, 0xdc, 0x6b, 0xbe, 0x9f, 0x12, 0xa8, 0x3d, 0xe3, 0xad, 0xe7, 0x3c,
  0xe8, 0x88, 0x4a, 0x3e, 0xa3, 0x15, 0x46, 0xbc, 0xfd, 0xf6, 0xda, 0xbe,
  0x9c, 0x6f, 0x9e, 0x3d, 0x51, 0x35, 0x1b, 0x3f, 0xfd, 0x5c, 0x49, 0xbe,
  0x65, 0xed, 0x28, 0x3e, 0x25, 0xae, 0x45, 0x3e, 0xae, 0xba, 0x94, 0x3e,
  0xc3, 0x17, 0x10, 0x3e, 0xd0, 0x35, 0xf6, 0xbe, 0x74, 0xa4, 0xab, 0x3d,
  0xf0, 0x7d, 0x83, 0xbe, 0x70, 0x23, 0xa7, 0x3e, 0x7b, 0xdb, 0x51, 0x3e,
  0x00, 0x33, 0xcf, 0xbd, 0x91, 0xfd, 0x89, 0x3d, 0x3e, 0x17, 0xb0, 0x3e,
  0xe4, 0xd8, 0xc8, 0xbc, 0x56, 0xd3, 0xa1, 0xbd, 0x99, 0x28, 0x92, 0xbd,
  0xe2, 0xc8, 0x1e, 0xbd, 0x9c, 0x48, 0x9f, 0xbc, 0x00, 0x0a, 0x34, 0xbc,
  0x7a, 0xbc, 0xd8, 0x3e, 0xee, 0x1f, 0x16, 0x3c, 0x88, 0xd6, 0x31, 0x3e,
  0x89, 0xa5, 0x49, 0xbe, 0x7b, 0x1a, 0xc4, 0xbe, 0x27, 0x64, 0xf4, 0xbe,
  0x6b, 0x5c, 0x74, 0xbd, 0x70, 0x71, 0x82, 0x3e, 0xa2, 0x2f, 0x9d, 0xbd,
  0x07, 0x1c, 0x87, 0xbe, 0x3f, 0x07, 0x63, 0x3e, 0x8e, 0x1a, 0x6a, 0x3e,
  0x51, 0x5b, 0xca, 0xbc, 0x85, 0x22, 0x11, 0x3f, 0xbf, 0x50, 0xf1, 0x3d,
  0x49, 0x7f, 0x82, 0x3e, 0xc0, 0xb3, 0x94, 0x3d, 0xdf, 0x14, 0x22, 0x3e,
  0xf3, 0xc2, 0xaa, 0x3d, 0x30, 0xd8, 0x9e, 0x3d, 0x58, 0x35, 0x28, 0xbf,
  0x8a, 0x22, 0xc0, 0x3e, 0xed, 0xbe, 0x04, 0x3e, 0x00, 0x8f, 0x4b, 0x3d,
  0x1d, 0x39, 0x82, 0xbd, 0xfd, 0x4e, 0x3e, 0x3d, 0xaf, 0x9b, 0xb4, 0x3d,
  0xd4, 0x9a, 0xed, 0x3d, 0x6f, 0x93, 0xe3, 0xbe, 0x1b, 0x3a, 0x8b, 0xbd,
  0x83, 0x0f, 0x3f, 0x3e, 0x07, 0x34, 0xd5, 0x3d, 0x3b, 0xc7, 0x98, 0x3d,
  0x88, 0x21, 0x83, 0xbd, 0x57, 0xf5, 0x31, 0xbf, 0xfe, 0x3c, 0x07, 0xbe,
  0x5e, 0x9f, 0xa6, 0xbd, 0xa5, 0xf0, 0x88, 0x3e, 0xbb, 0x10, 0xcc, 0x3e,
  0x00, 0x6f, 0x40, 0x3e, 0x01, 0x85, 0x43, 0x3e, 0xc2, 0x61, 0x58, 0x3e,
  0xaf, 0x86, 0x2f, 0xbe, 0x82, 0xbe, 0x7c, 0x3e, 0x46, 0xce, 0x35, 0xbe,
  0xe1, 0xd9, 0xa9, 0x3e, 0xf5, 0xc8, 0x81, 0xbc, 0x78, 0x22, 0x51, 0x3d,
  0x41, 0x6f, 0xaa, 0xbe, 0xd2, 0x47, 0xb1, 0xbe, 0xa7, 0xfa, 0x27, 0xbd,
  0x32, 0xda, 0x33, 0x3e, 0xda, 0x25, 0xdf, 0x3e, 0xc7, 0x6f, 0xdd, 0xbd,
  0x11, 0xd1, 0x85, 0x3e, 0xda, 0xd1, 0x2f, 0x3e, 0x00, 0x41, 0x1c, 0x3e,
  0x4d, 0x0b, 0x9d, 0x3d, 0xa1, 0x09, 0x09, 0xbf, 0x52, 0x6d, 0x0f, 0xbe,
  0x5d, 0x49, 0x30, 0x3e, 0x01, 0x3d, 0xad, 0x3e, 0x0f, 0x5a, 0x31, 0x3e,
  0x1c, 0xcd, 0x5a, 0x3e, 0x01, 0x88, 0x83, 0x3d, 0xe3, 0x24, 0xd9, 0x3d,
  0xdc, 0x1d, 0x28, 0xbe, 0xae, 0x8c, 0x3d, 0x3e, 0x97, 0xf1, 0x63, 0xbe,
  0x63, 0x00, 0x82, 0x3e, 0x0c, 0x4f, 0xe9, 0x3e, 0x1c, 0xa7, 0x3c, 0xbe,
  0xdd, 0xa6, 0xf9, 0xbb, 0xea, 0x6a, 0x6c, 0x3e, 0x9b, 0x1d, 0x36, 0x3e,
  0xf4, 0xea, 0x84, 0xbe, 0x68, 0x09, 0x8d, 0x3d, 0x94, 0xa4, 0xb9, 0xbe,
  0xd6, 0x66, 0x72, 0x3e, 0xb0, 0x66, 0x1e, 0x3e, 0x32, 0x02, 0x71, 0x3e,
  0xfe, 0x16, 0x47, 0xbd, 0x47, 0x6b, 0x16, 0x3f, 0xce, 0x18, 0x3b, 0xbe,
  0xec, 0xd6, 0x43, 0xbe, 0x4e, 0x43, 0x9a, 0xbd, 0xf2, 0xa5, 0x81, 0x3d,
  0xa8, 0x5f, 0x6a, 0x3d, 0xc4, 0xee, 0x04, 0x3e, 0xca, 0xc5, 0x06, 0x3e,
  0xfe, 0x51, 0xae, 0x3e, 0x44, 0x18, 0xf1, 0x3d, 0x90, 0xe2, 0x9e, 0xbe,
  0x8a, 0x72, 0x5a, 0x3d, 0x54, 0x8a, 0x39, 0x3e, 0x6a, 0x25, 0x55, 0xbe,
  0xd3, 0x66, 0x45, 0xbe, 0xd5, 0xb6, 0xb1, 0x3c, 0x0b, 0x83, 0xd3, 0x3e,
  0x8e, 0x8f, 0x13, 0xbe, 0x43, 0xa7, 0x06, 0x3b, 0x10, 0xd0, 0xe1, 0x3e,
  0x15, 0xb0, 0x6d, 0xbe, 0xfc, 0x0f, 0xba, 0xbd, 0x6a, 0x0e, 0xe1, 0xbd,
  0x00, 0x5b, 0x3c, 0xbd, 0x78, 0xe5, 0x6a, 0x3f, 0x90, 0x28, 0x12, 0xbd,
  0xae, 0x4f, 0xfb, 0xbe, 0x09, 0xf2, 0x66, 0xbd, 0x9c, 0x6d, 0xe8, 0x3d,
  0xaf, 0x4f, 0x28, 0xbe, 0xe4, 0xcb, 0x16, 0xbd, 0xfe, 0x70, 0x53, 0xbe,
  0x4c, 0xc3, 0xa0, 0xbe, 0xdc, 0x58, 0xf4, 0x3d, 0xa3, 0x54, 0x5e, 0x3c,
  0xbc, 0x0c, 0xb4, 0xbd, 0x11, 0x51, 0xb6, 0xbd, 0x6d, 0x20, 0xf1, 0x3b,
  0x7d, 0x24, 0x01, 0xbe, 0x18, 0x99, 0x4b, 0x3b, 0xa6, 0x64, 0x40, 0xbf,
  0x02, 0xc9, 0x33, 0x3e, 0x24, 0x42, 0x3d, 0x3e, 0x64, 0xb6, 0x2a, 0x3e,
  0x41, 0xba, 0xb1, 0x3e, 0xf1, 0x0c, 0x73, 0xbd, 0x3d, 0x18, 0x2f, 0xbd,
  0xa4, 0x16, 0x48, 0xbe, 0x6e, 0xc1, 0x0b, 0xbf, 0x7a, 0xef, 0x88, 0xbd,
  0x80, 0xe5, 0x32, 0x3c, 0xf3, 0x31, 0x70, 0xbd, 0x39, 0x60, 0xbf, 0x3e,
  0x85, 0xd2, 0x65, 0xbe, 0x20, 0x60, 0x96, 0x3d, 0xdb, 0x33, 0x26, 0xbd,
  0x6e, 0xac, 0xfb, 0x3e, 0x40, 0x89, 0x66, 0x3c, 0x8c, 0xae, 0x27, 0xbf,
  0x09, 0x7c, 0x9b, 0x3e, 0xe7, 0x84, 0x51, 0xbd, 0x81, 0x70, 0x83, 0xbe,
  0xc4, 0x70, 0xc5, 0x3d, 0xdf, 0x4c, 0xc1, 0x3e, 0x20, 0xcf, 0x96, 0x3e,
  0x7e, 0x17, 0x5d, 0xbe, 0x7a, 0x85, 0x85, 0xbe, 0x89, 0xc7, 0x9c, 0xbd,
  0xf8, 0x85, 0x12, 0x3d, 0x36, 0x4e, 0x52, 0xbd, 0x49, 0x66, 0x1c, 0x3f,
  0xbf, 0xbf, 0x1a, 0x3f, 0x39, 0x66, 0x77, 0x3e, 0x24, 0xb7, 0xff, 0x3d,
  0xca, 0xf4, 0xeb, 0xbe, 0x6c, 0x56, 0x62, 0xbe, 0x49, 0x7e, 0xb7, 0xbe,
  0xd7, 0x44, 0x3c, 0xbd, 0x1f, 0xc4, 0x0a, 0xbe, 0x3d, 0xba, 0x43, 0x3e,
  0x8b, 0xc0, 0x86, 0x3e, 0xe3, 0xe8, 0x82, 0xbe, 0x0b, 0x6a, 0x46, 0x3f,
  0x16, 0x9a, 0x12, 0xbf, 0x82, 0x9e, 0x9f, 0xbd, 0x8a, 0xf6, 0x2f, 0x3e,
  0x3f, 0x5e, 0xf5, 0x3b, 0x48, 0x16, 0x5c, 0xbc, 0xc4, 0xb1, 0x2c, 0x3f,
  0x70, 0xbd, 0x02, 0x3d, 0x71, 0xc0, 0x55, 0x3e, 0x45, 0x33, 0x69, 0x3f,
  0x4f, 0x50, 0xc5, 0xbe, 0x11, 0xba, 0x6d, 0x3d, 0x6e, 0x7d, 0xf1, 0xbe,
  0x09, 0x51, 0xcb, 0xbe, 0xd6, 0x34, 0x1e, 0x3f, 0x34, 0x37, 0xfd, 0x3d,
  0xe7, 0xdc, 0x62, 0x3e, 0x44, 0xbd, 0x3d, 0x3e, 0x32, 0xad, 0x8c, 0xbd,
  0x40, 0xeb, 0xaf, 0x3d, 0x53, 0xc8, 0x80, 0xbe, 0xdf, 0x05, 0x15, 0xbe,
  0x4d, 0x37, 0xeb, 0xbd, 0x06, 0xc6, 0x2d, 0xbe, 0x7c, 0x8c, 0x72, 0xbe,
  0x3e, 0xe7, 0x22, 0x3e, 0xa0, 0xb0, 0x32, 0xbe, 0xdc, 0x3b, 0x1f, 0x3e,
  0x21, 0x33, 0x85, 0x3d, 0x67, 0x3b, 0x8c, 0xbc, 0xb8, 0xb2, 0x56, 0xbe,
  0x5c, 0xb8, 0x23, 0x3e, 0x66, 0xc1, 0x55, 0xbe, 0x0c, 0x59, 0xfe, 0x3d,
  0xca, 0x00, 0xec, 0xbd, 0xc0, 0x8e, 0x91, 0xbc, 0x38, 0xe4, 0x3b, 0x3e,
  0x2f, 0x32, 0x5d, 0x3e, 0x86, 0xdd, 0x18, 0xbe, 0xe0, 0x30, 0x7e, 0x3c,
  0x22, 0xff, 0x0c, 0xbe, 0x26, 0xf2, 0x63, 0x3e, 0x5f, 0xcf, 0x05, 0x3d,
  0xc7, 0xa0, 0x74, 0x3e, 0xca, 0x38, 0x89, 0xbe, 0x7b, 0x74, 0xc5, 0x3d,
  0x3e, 0x5d, 0xbc, 0xbd, 0x0e, 0x34, 0xf7, 0xbd, 0x36, 0xe9, 0xb2, 0x3d,
  0xfb, 0xd5, 0x38, 0x3e, 0x79, 0x2a, 0xde, 0x3d, 0xc0, 0xa4, 0xed, 0xbc,
  0x0a, 0x24, 0x83, 0xbe, 0xb1, 0xff, 0xbe, 0x3d, 0xc2, 0x24, 0xaf, 0xbc,
  0x1b, 0x6e, 0x4e, 0xbe, 0x94, 0x00, 0x73, 0xbd, 0xf9, 0x65, 0x0b, 0xbe,
  0x5c, 0x4a, 0x7f, 0xbe, 0x40, 0x70, 0xd6, 0xbd, 0xc6, 0xf5, 0xc1, 0x3c,
  0x51, 0x00, 0x7c, 0x3e, 0x2c, 0xe2, 0x52, 0xbe, 0xee, 0xc7, 0x52, 0xbe,
  0xc2, 0x42, 0xcc, 0xbd, 0x40, 0xd5, 0x66, 0x3c, 0x13, 0xb0, 0xd4, 0x3a,
  0xbc, 0x26, 0xcf, 0xbd, 0x6b, 0x0e, 0xca, 0xbd, 0xf5, 0x0a, 0xe1, 0x3c,
  0xfe, 0xe3, 0x20, 0x3d, 0xe4, 0xeb, 0x4d, 0xbe, 0x64, 0x8b, 0x65, 0x3e,
  0xc4, 0x93, 0x97, 0x3d, 0xb7, 0x87, 0x4d, 0xbd, 0xc0, 0xef, 0xdd, 0xbb,
  0x4b, 0x87, 0x2c, 0xbe, 0x9b, 0x2e, 0xf0, 0xbd, 0xf0, 0xfb, 0x84, 0x3d,
  0x56, 0x35, 0x0e, 0x3e, 0xd6, 0x61, 0xb0, 0x3b, 0x42, 0x79, 0x3b, 0xbe,
  0xec, 0x9c, 0x22, 0xbd, 0xf2, 0x06, 0x59, 0x3e, 0xea, 0x05, 0xe7, 0xbd,
  0x0d, 0x11, 0x98, 0xbd, 0x44, 0xd3, 0x45, 0x3e, 0x66, 0x46, 0x29, 0xbe,
  0xa0, 0xff, 0x9b, 0x3d, 0xc6, 0x24, 0xcb, 0xbd, 0x1f, 0xf2, 0xad, 0x3e,
  0xae, 0x3c, 0x0e, 0x3e, 0x8e, 0x98, 0x8d, 0xbe, 0x47, 0xac, 0x07, 0x3e,
  0xc3, 0xb5, 0x8d, 0x3e, 0x20, 0x39, 0xcc, 0x3d, 0x41, 0x25, 0x9c, 0x3e,
  0xb1, 0xa5, 0xbc, 0xbd, 0xab, 0xc2, 0x47, 0x3e, 0x5c, 0x84, 0x49, 0x3e,
  0x28, 0xcf, 0x60, 0xbe, 0xa7, 0x84, 0xce, 0x3d, 0x58, 0xe9, 0xe5, 0x3e,
  0x80, 0x87, 0xf9, 0x3b, 0xe2, 0x63, 0x5c, 0xbc, 0xda, 0x8c, 0x72, 0x3d,
  0x93, 0x2f, 0xb5, 0x3e, 0x51, 0x00, 0x78, 0xbe, 0xdb, 0x66, 0x89, 0xbe,
  0xaf, 0xeb, 0x3d, 0xbe, 0x49, 0xde, 0x32, 0x3e, 0xd6, 0xe0, 0x86, 0xbd,
  0x6f, 0x9f, 0xe1, 0x3b, 0xbe, 0xeb, 0x02, 0x3e, 0xca, 0xaa, 0xa2, 0x3e,
  0xfd, 0xeb, 0x1c, 0xbd, 0x45, 0x44, 0xef, 0x3d, 0xd8, 0x5e, 0x88, 0xbe,
  0x73, 0x1c, 0x55, 0xbe, 0x50, 0x9c, 0xe4, 0x3c, 0xe0, 0x8b, 0x33, 0x3f,
  0x0e, 0xc1, 0xd4, 0xbd, 0x44, 0x78, 0x90, 0x3d, 0xee, 0x13, 0xae, 0xbd,
  0x51, 0x6d, 0xd2, 0x3e, 0x2b, 0x77, 0xf0, 0x3d, 0xa4, 0x70, 0xd1, 0xbe,
  0xe6, 0xe1, 0x4e, 0x3e, 0x08, 0x46, 0xa4, 0xbe, 0x15, 0x29, 0x3a, 0x3e,
  0x7b, 0x42, 0xb4, 0x3e, 0x82, 0x70, 0x2b, 0x3e, 0x40, 0x57, 0x77, 0xbe,
  0x28, 0x30, 0x51, 0x3e, 0x0f, 0x84, 0x70, 0xbd, 0xd0, 0x73, 0xa8, 0x3d,
  0x54, 0xc7, 0x97, 0x3c, 0x34, 0x63, 0x9c, 0xbe, 0x76, 0x27, 0xbc, 0x3e,
  0x67, 0xaa, 0x80, 0xbe, 0xb8, 0x72, 0xd2, 0xbd, 0x95, 0xd2, 0xeb, 0x3e,
  0xf5, 0x1c, 0xde, 0x3d, 0x3c, 0x04, 0x69, 0x3e, 0xd5, 0x11, 0x54, 0xbe,
  0xd8, 0x9e, 0xae, 0x3e, 0xe6, 0xad, 0x30, 0x3d, 0xb0, 0x93, 0xb0, 0x3c,
  0xb2, 0x5e, 0x24, 0xbd, 0x0b, 0x5b, 0x84, 0x3e, 0x87, 0x5c, 0x6d, 0x3e,
  0x1a, 0x09, 0x75, 0x3e, 0xce, 0x5d, 0xc4, 0xbe, 0x24, 0xaa, 0x1f, 0x3f,
  0x4e, 0xc0, 0x08, 0xbf, 0xf7, 0x7a, 0x0c, 0xbc, 0x5f, 0x08, 0xea, 0xbe,
  0x59, 0x31, 0xbf, 0x3e, 0xb6, 0xcf, 0x2f, 0x3f, 0xe0, 0xcf, 0x34, 0x3e,
  0x7a, 0xda, 0x15, 0x3f, 0xd5, 0x2c, 0x94, 0xbe, 0xeb, 0xea, 0xc9, 0x3d,
  0x03, 0x28, 0x3d, 0x3e, 0x60, 0x0b, 0xe9, 0x3e, 0x75, 0x79, 0x98, 0x3e,
  0xe7, 0x14, 0x8a, 0xbf, 0x4a, 0xe0, 0x6e, 0xbe, 0xed, 0x97, 0xa7, 0x3e,
  0x0b, 0x1e, 0x46, 0xbe, 0x7d, 0xd1, 0xbf, 0x3d, 0x86, 0xf1, 0xbe, 0xbd,
  0xfc, 0xd8, 0x68, 0xbe, 0x87, 0xc3, 0xcd, 0xbd, 0x58, 0xf1, 0x30, 0xbe,
  0x80, 0x3f, 0x88, 0xbb, 0x8e, 0x15, 0x43, 0x3f, 0x9b, 0x86, 0x34, 0xbe,
  0x3f, 0x4b, 0xfc, 0xbd, 0xdd, 0x67, 0x38, 0xbe, 0xea, 0xfd, 0x80, 0xbe,
  0x9f, 0x69, 0x8a, 0xbe, 0x16, 0x66, 0x54, 0x3f, 0x10, 0x7f, 0x9f, 0x3c,
  0x35, 0x92, 0xad, 0x3e, 0x1b, 0xcd, 0x1f, 0xbf, 0x79, 0xc7, 0x4e, 0x3a,
  0x88, 0x42, 0x3a, 0xbe, 0x85, 0xbc, 0x24, 0x3e, 0xc8, 0x49, 0xbd, 0x3e,
  0x68, 0x43, 0xb5, 0x3e, 0xb0, 0x56, 0x3c, 0x3e, 0x9d, 0xc8, 0x80, 0xbf,
  0x75, 0x7a, 0xba, 0x3e, 0x83, 0xbc, 0x96, 0xbe, 0x2e, 0x83, 0x01, 0x3e,
  0x85, 0x3f, 0x33, 0x3e, 0x70, 0xb0, 0xa9, 0x3d, 0xb6, 0x43, 0x0a, 0x3f,
  0x6e, 0x20, 0x9e, 0xbd, 0xc9, 0x03, 0x06, 0x3f, 0xc6, 0x49, 0xb3, 0xbe,
  0x64, 0xc1, 0xaa, 0x3e, 0xd2, 0xcb, 0x60, 0xbe, 0x7d, 0xb5, 0xf4, 0x3e,
  0xc7, 0xa0, 0xb6, 0xbc, 0x10, 0x58, 0x57, 0xbf, 0x90, 0x51, 0xb1, 0xbd,
  0x7d, 0x55, 0x44, 0xbe, 0x45, 0x72, 0xfe, 0x3c, 0xcc, 0xc9, 0x8e, 0x3e,
  0xb5, 0xf6, 0x71, 0x3e, 0x02, 0x99, 0xb1, 0x3d, 0x2f, 0x13, 0x15, 0xbe,
  0x38, 0x04, 0xdc, 0x3e, 0xe2, 0xa7, 0x3b, 0x3e, 0x08, 0x5d, 0xc5, 0x3d,
  0x5c, 0x23, 0x9f, 0xbe, 0x41, 0x08, 0xdf, 0x3e, 0x4e, 0xb0, 0x03, 0x3e,
  0xf9, 0xae, 0x59, 0x3e, 0x15, 0x17, 0x82, 0x3e, 0x7b, 0x73, 0xa5, 0x3d,
  0x72, 0xda, 0x7e, 0x3e, 0xd0, 0x42, 0x35, 0x3e, 0x9d, 0x92, 0x92, 0xbe,
  0x0e, 0x37, 0x34, 0x3e, 0x6a, 0xd5, 0xee, 0xbd, 0xf2, 0x93, 0x0d, 0xbe,
  0x70, 0xaf, 0x75, 0xbe, 0x64, 0x3c, 0x1b, 0x3f, 0x6c, 0x47, 0x0d, 0xbe,
  0x66, 0x0d, 0x03, 0xbf, 0x8f, 0x15, 0x39, 0x3f, 0xe1, 0xcf, 0xb1, 0xbd,
  0x8b, 0x8c, 0x83, 0x3e, 0x01, 0xe0, 0xb0, 0x3d, 0xa0, 0x2d, 0x1e, 0x3e,
  0x1f, 0xfd, 0x0b, 0x3d, 0xb0, 0xfe, 0xee, 0xbd, 0x96, 0x5d, 0x8c, 0xbe,
  0x70, 0x6d, 0x71, 0xbe, 0x06, 0xc9, 0x0b, 0xbc, 0x74, 0x29, 0x80, 0x3d,
  0xc3, 0xde, 0x3c, 0x3e, 0x42, 0x43, 0x7e, 0x3a, 0x40, 0x55, 0x71, 0x3c,
  0xa2, 0x1b, 0xe8, 0xbd, 0x4a, 0xd8, 0x18, 0xbe, 0x00, 0x42, 0x74, 0xbb,
  0xad, 0x10, 0x2a, 0xbe, 0x80, 0xd5, 0xa0, 0xbc, 0x7e, 0x86, 0x34, 0xbe,
  0x27, 0x99, 0x00, 0xbe, 0xb3, 0xf9, 0x30, 0xbe, 0xb6, 0x92, 0x7a, 0x3e,
  0xaf, 0xaf, 0xef, 0x3d, 0x71, 0x2f, 0x77, 0xbe, 0x3c, 0x9f, 0x42, 0xbd,
  0xa2, 0xd6, 0x46, 0xbd, 0x32, 0x26, 0xe9, 0x3d, 0x02, 0x9a, 0xd2, 0x3d,
  0xd2, 0x6a, 0xb3, 0xbd, 0x9a, 0xe2, 0x5e, 0x3e, 0x05, 0x14, 0xfc, 0xbc,
  0x5e, 0x30, 0xf8, 0x3d, 0x68, 0xc5, 0x1a, 0xbe, 0x58, 0x0a, 0xf4, 0x3d,
  0xda, 0x79, 0x8c, 0x3d, 0x9d, 0x9c, 0x83, 0xbe, 0x80, 0xd8, 0x0a, 0x3e,
  0x74, 0x9c, 0x85, 0xbe, 0xa2, 0xbe, 0xdf, 0x3d, 0x28, 0x76, 0x5c, 0x3d,
  0x5d, 0x3a, 0x96, 0xbe, 0xfa, 0xd9, 0xb0, 0xbd, 0x20, 0xab, 0x02, 0xbe,
  0xec, 0x78, 0xa1, 0xbd, 0x70, 0x22, 0x45, 0xbd, 0x3c, 0x4b, 0x10, 0xbe,
  0x36, 0x9c, 0x4c, 0x3e, 0xb0, 0xd1, 0x48, 0xbe, 0xd2, 0xef, 0xd6, 0xbd,
  0x66, 0x7f, 0x2b, 0xbe, 0xe2, 0x8b, 0x83, 0xbe, 0xf7, 0x4f, 0x83, 0xbe,
  0x16, 0x61, 0x1b, 0x3e, 0x8c, 0x99, 0x59, 0xbd, 0xce, 0x6c, 0xe7, 0x3d,
  0x62, 0xb8, 0xb1, 0xbd, 0x44, 0xbb, 0x68, 0x3d, 0xa0, 0x7b, 0x16, 0x3d,
  0xf1, 0xa0, 0xc3, 0xbd, 0x3c, 0x18, 0x30, 0xbe, 0xcb, 0xd2, 0x1c, 0xbe,
  0x91, 0x33, 0x27, 0xbe, 0x5c, 0xc9, 0x06, 0x3e, 0xb6, 0x2b, 0xc5, 0xbd,
  0xcb, 0x57, 0x7e, 0xbe, 0xdc, 0x7c, 0xa2, 0x3d, 0xf6, 0x87, 0xaf, 0x3d,
  0x7d, 0x79, 0x84, 0x3d, 0x64, 0xcc, 0x7e, 0xbd, 0xa8, 0xda, 0xdd, 0xbc,
  0x88, 0xaa, 0x49, 0x3a, 0x8b, 0x93, 0x4e, 0xbe, 0x2a, 0xe1, 0xe6, 0xbc,
  0x4a, 0x86, 0x81, 0x3e, 0x71, 0x03, 0x2f, 0x3b, 0xc3, 0xfc, 0x91, 0x3d,
  0x41, 0x62, 0x12, 0x3f, 0x98, 0x84, 0xd0, 0x3d, 0x38, 0x67, 0x1f, 0xbf,
  0x9c, 0xda, 0xe0, 0x3e, 0x3b, 0xda, 0xb4, 0xbd, 0x88, 0x9e, 0x1a, 0xbe,
  0xc5, 0xa3, 0x95, 0xbd, 0x68, 0x6b, 0x4f, 0x3e, 0xac, 0xa6, 0xd6, 0x3e,
  0xa2, 0x1f, 0x2e, 0x3e, 0xa8, 0x42, 0xf0, 0x3e, 0x09, 0x13, 0x16, 0xbf,
  0x5f, 0x61, 0x12, 0xbd, 0xca, 0xdd, 0xc7, 0x3d, 0x46, 0xbb, 0x9e, 0x3e,
  0x90, 0xee, 0x6d, 0x3e, 0x3a, 0xd2, 0x78, 0x3f, 0x1c, 0x24, 0xd8, 0x3d,
  0x6b, 0x42, 0x4f, 0xbd, 0x8e, 0xec, 0xff, 0xbe, 0x55, 0xd3, 0xec, 0xbc,
  0xac, 0x16, 0xaa, 0xbd, 0x71, 0x68, 0x14, 0x3e, 0xf5, 0x4f, 0x92, 0x3e,
  0x81, 0x60, 0xd7, 0x3e, 0xd4, 0xe0, 0xd5, 0xbd, 0x61, 0x22, 0x8a, 0x3d,
  0x7a, 0x7a, 0x1c, 0xbe, 0x5f, 0x76, 0x2d, 0xbd, 0xd6, 0x9c, 0xea, 0xbd,
  0x70, 0x31, 0x46, 0xbe, 0xbe, 0xd4, 0x23, 0x3c, 0x44, 0x91, 0x92, 0x3e,
  0xd0, 0x6a, 0x69, 0x3d, 0xc3, 0xac, 0x85, 0xbe, 0xe7, 0x56, 0x37, 0xbd,
  0x13, 0x68, 0x1e, 0x3e, 0x0c, 0xd9, 0x8c, 0x3d, 0x35, 0x2a, 0xa7, 0xbe,
  0xb9, 0x73, 0x97, 0x3e, 0x7a, 0x03, 0x42, 0x3e, 0xd8, 0xf6, 0x20, 0x3e,
  0x1d, 0x9f, 0xf8, 0x3e, 0x5b, 0x6e, 0x84, 0xbf, 0x84, 0x6d, 0xa5, 0xbd,
  0xe5, 0x1b, 0xdf, 0xbd, 0x75, 0x6d, 0x5b, 0xbe, 0x0a, 0x6d, 0xd3, 0xbe,
  0x7e, 0x54, 0x10, 0xbe, 0x12, 0x0d, 0x4c, 0x3e, 0x2d, 0xca, 0xa0, 0x3e,
  0x5f, 0xef, 0x5a, 0x3e, 0x0a, 0xec, 0xc9, 0x3e, 0x4c, 0xf5, 0x63, 0xbe,
  0x08, 0x97, 0x8a, 0xbe, 0xc1, 0xd7, 0xe9, 0x3d, 0xfe, 0xac, 0xa5, 0x3e,
  0x00, 0xa9, 0x8d, 0xbb, 0x7b, 0x33, 0x12, 0xbd, 0xb3, 0x30, 0xb5, 0xbe,
  0x7c, 0x45, 0xc4, 0x3d, 0xab, 0xb1, 0xf8, 0x3d, 0x8a, 0x74, 0x35, 0x3e,
  0x96, 0x39, 0xd3, 0xbe, 0xa8, 0x2c, 0x0e, 0x3f, 0x7c, 0xdc, 0x16, 0x3e,
  0x9b, 0xde, 0xb6, 0xbe, 0x10, 0xd7, 0x3f, 0xbe, 0x51, 0xf5, 0x1f, 0x3e,
  0xb0, 0xc8, 0x24, 0x3d, 0x21, 0x4c, 0xab, 0xbd, 0xb2, 0x3b, 0x25, 0x3e,
  0x6d, 0x9f, 0xf7, 0xbc, 0x02, 0x32, 0xac, 0xbd, 0x60, 0xf6, 0xb3, 0x3c,
  0x32, 0x3a, 0xe6, 0xbd, 0x37, 0x39, 0x4d, 0xbe, 0xa0, 0xed, 0x48, 0xbc,
  0x17, 0x6b, 0xf8, 0x3d, 0x9c, 0x85, 0x62, 0x3d, 0x3e, 0x74, 0x54, 0xbe,
  0x6c, 0x2a, 0xdc, 0x3d, 0x7a, 0x44, 0x72, 0xbe, 0x36, 0x17, 0x1e, 0xbe,
  0xca, 0x1e, 0x80, 0xbe, 0x8e, 0x32, 0x4c, 0xbe, 0x37, 0x7c, 0x5d, 0xbe,
  0xf9, 0x85, 0xa1, 0xbd, 0x1c, 0x7a, 0x34, 0x3e, 0x94, 0xad, 0x90, 0xbd,
  0xda, 0xea, 0x55, 0xbe, 0x90, 0x58, 0x23, 0x3d, 0x1e, 0xd5, 0x77, 0x3e,
  0xd4, 0x20, 0x09, 0xbd, 0x16, 0xc5, 0x29, 0xbe, 0xf9, 0xc7, 0x06, 0x3e,
  0x9f, 0xd9, 0xac, 0xbd, 0x62, 0x2b, 0x3f, 0x3e, 0x1d, 0x03, 0x25, 0xbe,
  0x42, 0x41, 0x73, 0x3e, 0x92, 0x46, 0x5e, 0xbe, 0xe2, 0x43, 0x7a, 0xbe,
  0x85, 0x9f, 0x3d, 0xbe, 0x40, 0xa3, 0x8a, 0x3e, 0x56, 0xab, 0x7c, 0x3e,
  0xee, 0x8e, 0x22, 0xbe, 0x63, 0x3b, 0x68, 0x3e, 0xba, 0x66, 0x09, 0x3e,
  0x88, 0xac, 0x97, 0xbc, 0x64, 0x63, 0xc1, 0x3d, 0x29, 0x93, 0x7e, 0x3e,
  0x14, 0x7c, 0xe0, 0x3c, 0x6a, 0xcc, 0x21, 0xbe, 0x70, 0x71, 0x16, 0xbd,
  0x30, 0xbc, 0x29, 0xbe, 0xca, 0x5a, 0xaa, 0xbd, 0xec, 0xbc, 0x56, 0x3e,
  0x2a, 0xd3, 0x67, 0x3e, 0x0b, 0xcb, 0x63, 0xbe, 0xd5, 0x38, 0x59, 0xbe,
  0xf2, 0x34, 0x15, 0xbd, 0xc7, 0x4d, 0x85, 0xbe, 0xe4, 0xc7, 0xb4, 0xbd,
  0x73, 0x99, 0x13, 0xbe, 0x17, 0xdf, 0xdd, 0xbd, 0xc4, 0x53, 0x50, 0xbe,
  0x56, 0x75, 0x73, 0xbe, 0x79, 0xd2, 0xe8, 0x3d, 0xa4, 0x78, 0xc1, 0xbd,
  0xcd, 0xb7, 0x80, 0x3e, 0x3f, 0xfb, 0xe3, 0x3c, 0xde, 0x0b, 0x7c, 0x3e,
  0x46, 0x26, 0x78, 0xbe, 0x10, 0xca, 0x32, 0x3d, 0x5c, 0xb2, 0x77, 0xbe,
  0x76, 0x38, 0x01, 0x3d, 0x5c, 0x4d, 0x90, 0x3d, 0x68, 0x38, 0x09, 0xbe,
  0x9f, 0xe4, 0x0e, 0x3e, 0x62, 0x8f, 0xda, 0xbd, 0x3a, 0xb9, 0xb3, 0xbd,
  0x0e, 0xe3, 0x6a, 0x3e, 0xb5, 0xf4, 0x12, 0x3e, 0xd5, 0x63, 0x0c, 0xbf,
  0xfb, 0xe6, 0x58, 0xbe, 0x0c, 0xfe, 0x23, 0x3e, 0x4d, 0x89, 0x6a, 0x3f,
  0x3a, 0x50, 0x10, 0xbf, 0xac, 0xd3, 0xe2, 0xbc, 0xc0, 0xdb, 0x17, 0x3c,
  0x4b, 0xd0, 0x99, 0x3e, 0x02, 0x68, 0x88, 0x3e, 0x3b, 0x64, 0x52, 0xbf,
  0xf0, 0x33, 0xa7, 0x3c, 0x12, 0x53, 0x94, 0x3e, 0x71, 0x34, 0x2f, 0x3f,
  0x19, 0x57, 0x77, 0xbe, 0xc9, 0x37, 0x28, 0x3e, 0x8e, 0x26, 0xec, 0xbe,
  0x9a, 0xc4, 0x21, 0x3e, 0x45, 0x5b, 0x64, 0x3c, 0x40, 0x2b, 0xef, 0x3c,
  0x2b, 0x94, 0xdc, 0xbd, 0x69, 0xc5, 0x05, 0x3f, 0xe2, 0xa4, 0x40, 0x3e,
  0xa7, 0x67, 0xf9, 0x3d, 0x0a, 0x0a, 0x95, 0x3e, 0x88, 0xd0, 0x3b, 0x3d,
  0x0f, 0xb2, 0x10, 0xbe, 0x60, 0xe6, 0x2c, 0x3e, 0x97, 0x11, 0x05, 0xbe,
  0x70, 0xd9, 0x03, 0x3d, 0x50, 0xe1, 0x62, 0x3e, 0xc8, 0x2e, 0x49, 0x3e,
  0xef, 0x36, 0xa9, 0x3e, 0x80, 0x2b, 0x40, 0x3e, 0x07, 0xe5, 0x5f, 0xbe,
  0xe4, 0xe8, 0x5d, 0xbd, 0x68, 0xfc, 0xf3, 0x3d, 0xd2, 0x7d, 0x6a, 0x3e,
  0x16, 0x20, 0xed, 0xbd, 0x12, 0x21, 0xe7, 0x3d, 0xc5, 0xe2, 0x21, 0x3e,
  0x2e, 0x67, 0x1a, 0x3e, 0xd7, 0x11, 0x4c, 0xbe, 0xcd, 0xa0, 0x3d, 0xbe,
  0xa0, 0x51, 0x2f, 0x3e, 0xe0, 0xb8, 0xfe, 0x3c, 0x58, 0x91, 0x12, 0xbe,
  0x7a, 0xd4, 0x08, 0x3e, 0xc5, 0xa1, 0xe4, 0xbb, 0x36, 0xaf, 0x8a, 0x3e,
  0xd7, 0x9d, 0x68, 0x3e, 0xe2, 0x79, 0x7e, 0x3e, 0xf9, 0x0a, 0x27, 0xbf,
  0xd3, 0x75, 0xbd, 0x3d, 0xa5, 0xca, 0xb7, 0xbe, 0x2c, 0x0f, 0x36, 0x3e,
  0xb2, 0x26, 0xb1, 0x3e, 0x51, 0x02, 0xdd, 0xbb, 0x96, 0xe7, 0xf1, 0x3e,
  0x88, 0x85, 0x05, 0x3d, 0x96, 0x57, 0x36, 0xbf, 0x20, 0xb9, 0xe7, 0x3e,
  0x1d, 0xa0, 0xe9, 0xbe, 0xa4, 0x39, 0x13, 0x3e, 0xd1, 0x0b, 0xa4, 0x3d,
  0x2b, 0xd4, 0x88, 0x3e, 0xb6, 0x2a, 0x86, 0x3e, 0x56, 0x0e, 0x6c, 0x3e,
  0x96, 0xe0, 0xcd, 0xbc, 0x0f, 0xc3, 0x95, 0x3e, 0x71, 0xcd, 0xc3, 0x3e,
  0x63, 0x49, 0x12, 0x3c, 0x98, 0x51, 0x12, 0x3d, 0x05, 0x63, 0x62, 0x3c,
  0x24, 0x4e, 0x18, 0x3d, 0x04, 0x78, 0xd6, 0x3d, 0x00, 0x3d, 0x05, 0xbf,
  0x4f, 0xc9, 0x2a, 0x3e, 0x54, 0xde, 0xf4, 0xbc, 0xcf, 0xf6, 0x42, 0x3d,
  0x4f, 0xc3, 0x7c, 0x3e, 0x24, 0xe5, 0x00, 0x3f, 0xe9, 0x49, 0xa2, 0x3d,
  0xc8, 0xc9, 0x9c, 0xbd, 0x0d, 0xe2, 0xd8, 0xbe, 0x98, 0xfc, 0x81, 0x3e,
  0x61, 0xd7, 0xe0, 0xbd, 0x4e, 0xdd, 0xa6, 0xbc, 0xb5, 0x1c, 0xc9, 0x3c,
  0x1e, 0x8a, 0xc2, 0xbd, 0xfe, 0x9b, 0xf8, 0xbe, 0xdc, 0xbb, 0x0c, 0x3e,
  0x1d, 0xaf, 0x3f, 0x3e, 0x4b, 0xbf, 0x5c, 0x3e, 0x3e, 0x0f, 0x02, 0x3e,
  0xa0, 0xf0, 0x58, 0xbe, 0xba, 0xc4, 0xb8, 0x3e, 0x65, 0x14, 0x6d, 0x3c,
  0x3c, 0x56, 0x04, 0x3f, 0xc6, 0xbf, 0xed, 0xbd, 0xfd, 0xe2, 0x1a, 0x3f,
  0xf3, 0x61, 0xf8, 0x3d, 0xf1, 0x4e, 0x82, 0xbc, 0x56, 0x46, 0x56, 0x3d,
  0xcb, 0x65, 0x4b, 0x3e, 0x1d, 0x96, 0x73, 0x3e, 0xf9, 0xf0, 0x64, 0x3d,
  0x80, 0xe4, 0x4a, 0xbc, 0x30, 0x77, 0xef, 0xbe, 0x56, 0x8f, 0x9b, 0xbe,
  0xf2, 0x2f, 0xb8, 0xbe, 0x2f, 0x3e, 0x20, 0xbe, 0xd1, 0xb2, 0x70, 0xbd,
  0xbf, 0xf8, 0xbf, 0xbd, 0x2a, 0x9c, 0x1d, 0x3f, 0x50, 0x4d, 0x95, 0x3c,
  0xba, 0xde, 0x6d, 0xbe, 0x0e, 0x47, 0x8e, 0x3f, 0x99, 0xb0, 0x07, 0xbd,
  0xc7, 0x09, 0x20, 0x3e, 0xe2, 0x0e, 0xba, 0xbc, 0xb2, 0xa8, 0x45, 0x3e,
  0x28, 0xb2, 0x2b, 0xbe, 0x4e, 0xfc, 0x43, 0xbe, 0x46, 0xd9, 0x7a, 0xbe,
  0x78, 0x7f, 0x98, 0x3d, 0xe7, 0x29, 0xe3, 0xbe, 0x1a, 0x27, 0x3d, 0xbe,
  0xda, 0xa1, 0x85, 0x3e, 0xd3, 0xa2, 0x99, 0x3d, 0x90, 0x1f, 0x69, 0xbe,
  0x40, 0x00, 0x1c, 0x3c, 0x90, 0x32, 0x43, 0x3e, 0xfe, 0xc6, 0x24, 0x3e,
  0x3b, 0x12, 0x97, 0xbe, 0xc5, 0x4e, 0x69, 0x3e, 0x5e, 0x68, 0xaf, 0xbe,
  0x03, 0x65, 0x71, 0x3e, 0x6a, 0x6e, 0x34, 0xbe, 0x25, 0xb7, 0x6c, 0xbe,
  0x97, 0x22, 0x51, 0x3f, 0x90, 0x92, 0xdf, 0x3d, 0xda, 0xfd, 0xff, 0xff,
  0x10, 0x00, 0x00, 0x00, 0x06, 0x00, 0x00, 0x00, 0x14, 0x00, 0x00, 0x00,
  0x34, 0x00, 0x00, 0x00, 0x02, 0x00, 0x00, 0x00, 0x10, 0x00, 0x00, 0x00,
  0x48, 0x00, 0x00, 0x00, 0x1c, 0x00, 0x00, 0x00, 0x73, 0x65, 0x71, 0x75,
  0x65, 0x6e, 0x74, 0x69, 0x61, 0x6c, 0x5f, 0x38, 0x2f, 0x64, 0x65, 0x6e,
  0x73, 0x65, 0x5f, 0x31, 0x36, 0x2f, 0x4d, 0x61, 0x74, 0x4d, 0x75, 0x6c,
  0x00, 0x00, 0x00, 0x00, 0x48, 0xfd, 0xff, 0xff, 0x56, 0xfe, 0xff, 0xff,
  0x04, 0x00, 0x00, 0x00, 0x08, 0x00, 0x00, 0x00, 0xff, 0xff, 0xff, 0xff,
  0x48, 0x00, 0x00, 0x00, 0x00, 0x00, 0x0e, 0x00, 0x18, 0x00, 0x08, 0x00,
  0x07, 0x00, 0x0c, 0x00, 0x10, 0x00, 0x14, 0x00, 0x0e, 0x00, 0x00, 0x00,
  0x00, 0x00, 0x00, 0x02, 0x10, 0x00, 0x00, 0x00, 0x05, 0x00, 0x00, 0x00,
  0x10, 0x00, 0x00, 0x00, 0x30, 0x00, 0x00, 0x00, 0x01, 0x00, 0x00, 0x00,
  0x02, 0x00, 0x00, 0x00, 0x1c, 0x00, 0x00, 0x00, 0x73, 0x65, 0x71, 0x75,
  0x65, 0x6e, 0x74, 0x69, 0x61, 0x6c, 0x5f, 0x38, 0x2f, 0x66, 0x6c, 0x61,
  0x74, 0x74, 0x65, 0x6e, 0x5f, 0x38, 0x2f, 0x43, 0x6f, 0x6e, 0x73, 0x74,
  0x00, 0x00, 0x00, 0x00, 0xb4, 0xfd, 0xff, 0xff, 0xc2, 0xfe, 0xff, 0xff,
  0x04, 0x00, 0x00, 0x00, 0x28, 0x00, 0x00, 0x00, 0xae, 0x93, 0xea, 0x3d,
  0xba, 0x7d, 0x3a, 0x3c, 0xd9, 0x76, 0x19, 0x3e, 0xcf, 0x00, 0x13, 0x3c,
  0x94, 0x82, 0xa0, 0xbd, 0x41, 0x09, 0x90, 0x3c, 0x29, 0x1e, 0xe5, 0x3b,
  0x9d, 0x7c, 0xbc, 0xbd, 0x57, 0xa5, 0xd1, 0xbd, 0x6f, 0xbc, 0x2c, 0xbd,
  0xc2, 0xfe, 0xff, 0xff, 0x10, 0x00, 0x00, 0x00, 0x04, 0x00, 0x00, 0x00,
  0x10, 0x00, 0x00, 0x00, 0x48, 0x00, 0x00, 0x00, 0x01, 0x00, 0x00, 0x00,
  0x0a, 0x00, 0x00, 0x00, 0x35, 0x00, 0x00, 0x00, 0x73, 0x65, 0x71, 0x75,
  0x65, 0x6e, 0x74, 0x69, 0x61, 0x6c, 0x5f, 0x38, 0x2f, 0x64, 0x65, 0x6e,
  0x73, 0x65, 0x5f, 0x31, 0x37, 0x2f, 0x42, 0x69, 0x61, 0x73, 0x41, 0x64,
  0x64, 0x2f, 0x52, 0x65, 0x61, 0x64, 0x56, 0x61, 0x72, 0x69, 0x61, 0x62,
  0x6c, 0x65, 0x4f, 0x70, 0x2f, 0x72, 0x65, 0x73, 0x6f, 0x75, 0x72, 0x63,
  0x65, 0x00, 0x00, 0x00, 0x44, 0xfe, 0xff, 0xff, 0x52, 0xff, 0xff, 0xff,
  0x04, 0x00, 0x00, 0x00, 0x40, 0x00, 0x00, 0x00, 0xb8, 0xa6, 0x46, 0xbc,
  0x52, 0x0f, 0xa2, 0x3d, 0x9f, 0xd7, 0x3e, 0x3c, 0x17, 0xcc, 0x2d, 0x3e,
  0xa9, 0x0d, 0x70, 0xbb, 0xee, 0xb2, 0xd4, 0x3c, 0xec, 0xab, 0x6b, 0x3c,
  0x0c, 0xdf, 0xd2, 0x3c, 0xdd, 0x34, 0x5c, 0xbc, 0xe4, 0x99, 0x82, 0x3d,
  0x08, 0x29, 0xae, 0x3d, 0xae, 0x37, 0x18, 0xbd, 0x88, 0x57, 0x8c, 0xbb,
  0x8c, 0x3e, 0x43, 0x3c, 0x3b, 0xca, 0x84, 0x3c, 0xd9, 0x40, 0x7d, 0x3d,
  0x6a, 0xff, 0xff, 0xff, 0x10, 0x00, 0x00, 0x00, 0x03, 0x00, 0x00, 0x00,
  0x10, 0x00, 0x00, 0x00, 0x4c, 0x00, 0x00, 0x00, 0x01, 0x00, 0x00, 0x00,
  0x10, 0x00, 0x00, 0x00, 0x35, 0x00, 0x00, 0x00, 0x73, 0x65, 0x71, 0x75,
  0x65, 0x6e, 0x74, 0x69, 0x61, 0x6c, 0x5f, 0x38, 0x2f, 0x64, 0x65, 0x6e,
  0x73, 0x65, 0x5f, 0x31, 0x36, 0x2f, 0x42, 0x69, 0x61, 0x73, 0x41, 0x64,
  0x64, 0x2f, 0x52, 0x65, 0x61, 0x64, 0x56, 0x61, 0x72, 0x69, 0x61, 0x62,
  0x6c, 0x65, 0x4f, 0x70, 0x2f, 0x72, 0x65, 0x73, 0x6f, 0x75, 0x72, 0x63,
  0x65, 0x00, 0x00, 0x00, 0x04, 0x00, 0x06, 0x00, 0x04, 0x00, 0x00, 0x00,
  0x00, 0x00, 0x06, 0x00, 0x08, 0x00, 0x04, 0x00, 0x06, 0x00, 0x00, 0x00,
  0x04, 0x00, 0x00, 0x00, 0x20, 0x00, 0x00, 0x00, 0x44, 0xbc, 0x3b, 0x3e,
  0x01, 0xda, 0xad, 0xbc, 0x6f, 0xdf, 0x11, 0x3e, 0xda, 0x5b, 0x68, 0x3d,
  0x7b, 0x5f, 0xeb, 0x3e, 0x00, 0x00, 0x00, 0x00, 0x06, 0x2f, 0x18, 0x3f,
  0xf9, 0xb9, 0x32, 0x3e, 0x00, 0x00, 0x0e, 0x00, 0x14, 0x00, 0x04, 0x00,
  0x00, 0x00, 0x08, 0x00, 0x0c, 0x00, 0x10, 0x00, 0x0e, 0x00, 0x00, 0x00,
  0x10, 0x00, 0x00, 0x00, 0x02, 0x00, 0x00, 0x00, 0x10, 0x00, 0x00, 0x00,
  0x48, 0x00, 0x00, 0x00, 0x01, 0x00, 0x00, 0x00, 0x08, 0x00, 0x00, 0x00,
  0x35, 0x00, 0x00, 0x00, 0x73, 0x65, 0x71, 0x75, 0x65, 0x6e, 0x74, 0x69,
  0x61, 0x6c, 0x5f, 0x38, 0x2f, 0x63, 0x6f, 0x6e, 0x76, 0x32, 0x64, 0x5f,
  0x38, 0x2f, 0x42, 0x69, 0x61, 0x73, 0x41, 0x64, 0x64, 0x2f, 0x52, 0x65,
  0x61, 0x64, 0x56, 0x61, 0x72, 0x69, 0x61, 0x62, 0x6c, 0x65, 0x4f, 0x70,
  0x2f, 0x72, 0x65, 0x73, 0x6f, 0x75, 0x72, 0x63, 0x65, 0x00, 0x00, 0x00,
  0x90, 0xff, 0xff, 0xff, 0x14, 0x00, 0x18, 0x00, 0x04, 0x00, 0x00, 0x00,
  0x08, 0x00, 0x0c, 0x00, 0x10, 0x00, 0x00, 0x00, 0x00, 0x00, 0x14, 0x00,
  0x14, 0x00, 0x00, 0x00, 0x14, 0x00, 0x00, 0x00, 0x01, 0x00, 0x00, 0x00,
  0x20, 0x00, 0x00, 0x00, 0x44, 0x00, 0x00, 0x00, 0x2c, 0x00, 0x00, 0x00,
  0x04, 0x00, 0x00, 0x00, 0x01, 0x00, 0x00, 0x00, 0x08, 0x00, 0x00, 0x00,
  0x08, 0x00, 0x00, 0x00, 0x01, 0x00, 0x00, 0x00, 0x0e, 0x00, 0x00, 0x00,
  0x63, 0x6f, 0x6e, 0x76, 0x32, 0x64, 0x5f, 0x38, 0x5f, 0x69, 0x6e, 0x70,
  0x75, 0x74, 0x00, 0x00, 0x04, 0x00, 0x00, 0x00, 0xff, 0xff, 0xff, 0xff,
  0x08, 0x00, 0x00, 0x00, 0x08, 0x00, 0x00, 0x00, 0x01, 0x00, 0x00, 0x00,
  0xfc, 0xff, 0xff, 0xff, 0x04, 0x00, 0x04, 0x00, 0x04, 0x00, 0x00, 0x00
 
};

#endif //MNIST_MODEL_H
